<unk>	0
<s>	0
</s>	0
.	-2.97699
ം	-4.0107
,	-4.05503
്	-4.40314
▁	-4.52371
ു	-4.88784
ൽ	-5.29554
▁ഒരു	-5.32623
ൻ	-5.34493
#	-5.37019
▁#	-5.3926
ങ്ങൾ	-5.43186
▁ഈ	-5.44522
-	-5.44527
ി	-5.46422
▁എന്ന	-5.54024
ത്	-5.55453
▁(	-5.61692
യിൽ	-5.6396
)	-5.64126
ാ	-5.65443
ത്തിൽ	-5.65659
യുടെ	-5.68176
സ്	-5.73668
ർ	-5.74115
മ	-5.79531
വും	-5.80886
വ	-5.80986
യും	-5.81373
യ	-5.82187
ും	-5.88081
ിൽ	-5.93077
ക	-5.93268
ത	-5.936
ത്തിന്റെ	-5.98775
ന	-5.99073
കൾ	-5.99755
മാണ്	-6.09
മായ	-6.11346
ക്ക	-6.16345
▁.	-6.17447
▁അ	-6.21975
▁ആ	-6.22
ാൻ	-6.26393
ല	-6.30699
മായി	-6.31025
ര	-6.32849
െ	-6.33558
യാണ്	-6.33836
ിന്റെ	-6.35405
ക്ക്	-6.3628
സ	-6.37415
ാണ്	-6.40148
▁"	-6.40404
ത്ത	-6.4236
ത്തെ	-6.43209
"	-6.44729
റ	-6.4889
യെ	-6.50202
ങ്ങളും	-6.50674
ങ്ങളിൽ	-6.5353
ുന്ന	-6.54698
ുകയും	-6.57198
യിലെ	-6.5747
ോ	-6.58802
ുന്നു	-6.60958
ുകൾ	-6.62428
സി	-6.63068
▁അദ്ദേഹം	-6.64411
ട	-6.64532
ക്	-6.67986
േ	-6.68902
പ്പ	-6.71419
ന്റെ	-6.7274
പ	-6.76552
ള	-6.76766
ണ	-6.7753
വി	-6.7793
ത്തിന്	-6.78219
▁മ	-6.8082
ിലെ	-6.81233
▁ആണ്	-6.81474
ായി	-6.81672
ുള്ള	-6.8255
▁പ്രധാന	-6.84664
▁ഇത്	-6.86012
:	-6.86371
▁ഏറ്റവും	-6.86956
▁നിന്നും	-6.87424
▁ചെയ്തു	-6.87488
▁തന്നെ	-6.88455
ന്	-6.8846
▁വി	-6.93571
▁ക	-6.94956
ത്തിലെ	-6.95107
റ്റ	-6.95173
▁നിന്ന്	-6.96673
ങ്ങളുടെ	-6.98556
ലി	-7.00164
▁സ	-7.00808
ത്തിനു	-7.01177
ച്ച	-7.02687
ക്കു	-7.02735
▁എന്ന്	-7.04239
▁ഇ	-7.0432
ൂ	-7.0482
ിയ	-7.05
കളും	-7.05062
▁എന്നാൽ	-7.05242
ുക	-7.05911
കളിൽ	-7.06276
നി	-7.06945
(	-7.07134
യുള്ള	-7.07485
▁എ	-7.07687
▁വ	-7.07762
ഹ	-7.08374
ീ	-7.08931
ത്ത്	-7.09037
ഡ	-7.10024
ടി	-7.10144
ട്ട	-7.10206
▁ത	-7.10613
ിരുന്നു	-7.11222
▁വരെ	-7.1199
റി	-7.12212
ഡ്	-7.1233
നെ	-7.13321
ുന്നത്	-7.13565
പി	-7.1485
രി	-7.14979
ഗ	-7.15102
▁സി	-7.15663
▁പ	-7.16706
▁മുതൽ	-7.16856
ിട്ടുണ്ട്	-7.17097
ായ	-7.17526
;	-7.18117
യോ	-7.18277
▁എന്നീ	-7.19657
മുള്ള	-7.19912
ശ	-7.19996
ഡി	-7.20339
▁-	-7.21051
‍	-7.21217
▁പല	-7.22722
▁തന്റെ	-7.23084
▁,	-7.23537
അ	-7.26469
മി	-7.26986
▁18	-7.27417
▁ചില	-7.27693
തി	-7.28484
ജ	-7.28627
ിച്ചു	-7.28637
ിക	-7.28988
ങ്ങളെ	-7.29046
പ്പെട്ട	-7.29509
ാം	-7.30257
കളുടെ	-7.31026
ായിരുന്നു	-7.31038
▁എന്നിവ	-7.31188
യായി	-7.31751
ദ	-7.32526
'	-7.32962
യായ	-7.33601
ില്ല	-7.34425
ന്ന	-7.34476
ൺ	-7.348
തു	-7.35697
▁പിന്നീട്	-7.37356
▁എന്നു	-7.37551
▁വലിയ	-7.38345
▁പ്ര	-7.39817
മ്പ	-7.39899
▁പി	-7.40018
ങ്ങള	-7.40036
ിനെ	-7.41545
ലെ	-7.41571
നും	-7.41679
▁ഇവിടെ	-7.43468
),	-7.43658
തും	-7.44045
റ്റ്	-7.44436
താണ്	-7.44635
▁അവ	-7.45032
ിച്ച	-7.45278
മാ	-7.45367
ിന്	-7.45817
▁'	-7.46508
നായ	-7.4669
▁മാ	-7.46846
▁വളരെ	-7.47115
ൾ	-7.47126
▁എന്നും	-7.47304
▁തുടങ്ങിയ	-7.47666
ത്തു	-7.48356
യ്	-7.48621
▁ശേഷം	-7.49232
▁[[	-7.49412
വർ	-7.50394
യാ	-7.51305
▁അദ്ദേഹത്തിന്റെ	-7.51374
▁മറ്റു	-7.5153
യ്ക്ക്	-7.52113
്യ	-7.52187
ങ്ങ	-7.52832
▁എല്ലാ	-7.53069
പ്ര	-7.53212
▁ഇന്ത്യൻ	-7.53246
ൈ	-7.53255
▁കൂടുതൽ	-7.53455
ിക്ക	-7.53973
▁ന	-7.54334
s	-7.54377
▁സ്	-7.54601
ൂർ	-7.55237
ഴ	-7.55905
ത്തിലും	-7.55976
ബ	-7.56005
▁കേരള	-7.56304
▁അത്	-7.57701
മായിരുന്നു	-7.57757
▁ആദ്യ	-7.57844
ൊ	-7.57856
നു	-7.58016
▁ഹ	-7.58338
▁നി	-7.59292
യിലും	-7.60149
▁കാ	-7.60262
▁ൽ	-7.60896
നാ	-7.61177
ഭ	-7.61244
റ്റി	-7.61378
ിരുന്ന	-7.61822
ല്ല	-7.61859
▁പാ	-7.62143
]]	-7.6248
▁എന്നാണ്	-7.63109
ാൽ	-7.63251
▁ഉ	-7.63729
▁വഴി	-7.63805
▁ബ	-7.6402
▁ഇവ	-7.64589
ദ്	-7.64716
▁ച	-7.64747
▁കോ	-7.64774
ത്തി	-7.65411
▁രണ്ടു	-7.65468
ച	-7.65908
ിലും	-7.66331
ജി	-7.66859
കളെ	-7.67459
▁അവർ	-7.68282
ണ്ട	-7.68692
വാ	-7.6891
▁ഉള്ള	-7.69192
▁ഇട	-7.69412
ബി	-7.69654
ട്ട്	-7.70116
കള	-7.70385
പ്പെട്ടു	-7.70442
മോ	-7.70644
ളി	-7.70645
ന്ത	-7.70715
ഇ	-7.70967
ഷ	-7.71001
ണം	-7.711
ബ്	-7.71982
രു	-7.72189
▁സാ	-7.72922
പ്പോൾ	-7.73104
ാന	-7.73421
ിരിക്കുന്നു	-7.73778
ിനു	-7.73963
എസ്	-7.74306
▁കേരളത്തിലെ	-7.74701
▁ജ	-7.74813
ുകളും	-7.75069
പ്	-7.75134
▁സു	-7.75251
സാ	-7.75633
ക്കും	-7.75794
).	-7.76536
▁ദ	-7.76565
എ	-7.7775
▁ഗ	-7.77761
മു	-7.77802
ണി	-7.77982
▁മു	-7.78087
ങ്ങളിലും	-7.78173
▁പുതിയ	-7.78667
▁കെ	-7.79435
▁ഇന്ത്യ	-7.79518
▁ചെയ്ത	-7.79661
▁രൂപ	-7.79842
▁ശ	-7.80795
ുകളിൽ	-7.81255
▁രണ്ട്	-7.8134
▁ഐ	-7.81865
യായിരുന്നു	-7.82342
നം	-7.82493
▁ലോക	-7.82708
▁വാ	-7.82873
▁ആയിരുന്നു	-7.83158
ക്കി	-7.83199
താ	-7.83239
ഫ	-7.83268
▁ബി	-7.83962
ഷ്	-7.83995
▁വര	-7.84079
യർ	-7.84308
ലാ	-7.84394
ിക്കുന്ന	-7.84778
▁സം	-7.85333
▁ഒ	-7.85819
ങ്ങളാണ്	-7.86077
ട്ടി	-7.86773
▁ക്ഷേത്ര	-7.88437
കര	-7.88647
ുമ്പോൾ	-7.88784
യി	-7.8947
▁ഓഫ്	-7.89561
▁ഭാഷ	-7.89623
ങ്ങൾക്ക്	-7.89896
▁സംസ്ഥാന	-7.90551
െങ്കിലും	-7.90589
▁ശ്രീ	-7.90884
▁തുടങ്ങി	-7.9099
▁ചെറിയ	-7.91
▁നടന്ന	-7.91109
ഫ്	-7.9112
▁വന്ന	-7.91259
ച്ചു	-7.91287
▁3	-7.91301
▁കു	-7.91414
ഥ	-7.91832
ാനും	-7.9208
▁മി	-7.92401
▁ഉണ്ട്	-7.93436
▁കൈ	-7.93617
യില	-7.93802
ക്ഷ	-7.9393
രുടെ	-7.94115
m	-7.9461
▁കേന്ദ്ര	-7.94919
വര	-7.94988
▁നഗര	-7.9523
▁വെ	-7.9538
മാർ	-7.95989
▁ല	-7.96176
▁സാഹിത്യ	-7.96276
▁ഉപ	-7.96514
▁വിവിധ	-7.96705
▁2	-7.96834
മ്മ	-7.96896
▁തുടർന്ന്	-7.97425
▁കൊണ്ട്	-7.98205
▁ഭരണ	-7.98262
വ്	-7.98445
ത്തില	-7.98471
▁നിരവധി	-7.98744
▁അതിന്റെ	-7.99211
▁ചെയ്യുന്ന	-7.99547
▁ഡി	-7.99837
ാർ	-8.0048
▁സെ	-8.0075
ൗ	-8.0075
ലോ	-8.00988
റാ	-8.01149
ന്മാർ	-8.01157
▁മലയാള	-8.01267
കാര	-8.01363
ംഗ	-8.01373
▁കാല	-8.01472
▁ചെ	-8.02008
▁രാഷ്ട്രീയ	-8.02019
▁ചെയ്യുന്നു	-8.02448
തായി	-8.02637
ത്തിനും	-8.02755
c	-8.02801
▁പ്രത്യേക	-8.02829
▁ആദ്യത്തെ	-8.02864
▁നില	-8.02928
ാറുണ്ട്	-8.02981
ാവ	-8.03027
ുടെ	-8.03083
▁കി	-8.03127
▁ഇതിന്റെ	-8.0317
സ്റ്റ	-8.03387
▁പേരിൽ	-8.03632
ഗ്	-8.03901
|	-8.04239
നോ	-8.05078
▁കൂടാതെ	-8.05449
ക്കോ	-8.05588
▁സ്ഥിതി	-8.0573
ാനുള്ള	-8.06096
യ്ക്ക	-8.06111
▁ചെയ്യ	-8.06117
തിനാൽ	-8.06229
ആ	-8.06821
ിച്ച്	-8.07124
ികൾ	-8.07178
ുണ്ട്	-8.07383
ധ	-8.0758
പ്പ്	-8.07632
രാ	-8.08401
t	-8.08607
▁മത	-8.08672
കാ	-8.08785
▁അവരുടെ	-8.08887
▁മറ്റൊരു	-8.08952
y	-8.0923
റു	-8.09623
മുണ്ട്	-8.09816
▁ഓ	-8.09875
▁പള്ളി	-8.10248
▁റ	-8.10354
▁17	-8.10457
ാതെ	-8.10458
ത്തിലാണ്	-8.10501
ക്കാ	-8.10897
റോ	-8.10917
▁ചിത്ര	-8.11182
ണ്ട്	-8.1123
▁ജല	-8.11239
മീ	-8.11354
ക്കാർ	-8.1149
ാത്ത	-8.1149
ുവാൻ	-8.1186
യു	-8.12198
നായി	-8.12491
▁മെ	-8.12505
d	-8.12588
്റെ	-8.12617
ില	-8.12728
വേ	-8.12954
▁നിയമ	-8.13004
▁ഏ	-8.13017
ിരുന്നത്	-8.13044
▁അവിടെ	-8.13861
നാണ്	-8.14726
▁വരുന്ന	-8.14753
ar	-8.14956
▁കൂടി	-8.1527
▁നദി	-8.15284
&	-8.15452
▁അടുത്ത	-8.15483
▁രാജ്യ	-8.15739
മാന	-8.15812
▁രാജ	-8.16227
▁ചരിത്രം	-8.16253
കാല	-8.16597
▁സാധാരണ	-8.16877
▁കര	-8.17034
▁ജോലി	-8.17396
▁യുദ്ധ	-8.17465
▁ഇതിൽ	-8.17642
ിത	-8.17644
▁കൂട്ട	-8.1773
ത്ര	-8.18
▁നിന്നു	-8.18012
▁വർഷം	-8.18147
▁സ്ഥാന	-8.18194
o	-8.18216
p	-8.18557
▁പാർട്ടി	-8.18835
മേ	-8.18877
▁മര	-8.19079
ിലേക്ക്	-8.19108
ച്ച്	-8.19108
▁കൃഷി	-8.19289
ുകളുടെ	-8.193
▁കേരളത്തിൽ	-8.19401
ങ്ക	-8.19566
▁നട	-8.19786
റിയ	-8.19866
e	-8.20253
ഞ്ച	-8.20346
▁ചരിത്ര	-8.20485
ിരിക്കുന്ന	-8.20873
കൾക്ക്	-8.20974
▁ക്ഷേത്രം	-8.21008
▁തല	-8.21194
▁അഥവാ	-8.21409
▁വേണ്ടി	-8.21892
കെ	-8.21958
n	-8.22038
സം	-8.2226
ിട	-8.22753
▁ജില്ലയിലെ	-8.22757
▁മൂന്നു	-8.22921
▁നടത്തിയ	-8.23048
യിലാണ്	-8.23202
കം	-8.23302
▁കാണ	-8.23737
പ്പി	-8.23776
ഞ്ഞ	-8.23836
▁ഓരോ	-8.23928
ന്റ	-8.24036
വു	-8.24419
സ്സ	-8.2481
ിക്കുന്നു	-8.25109
▁ചാ	-8.25193
▁സഭ	-8.25358
ായിരുന്ന	-8.25694
▁5	-8.25707
▁വേ	-8.25904
കി	-8.25911
▁ബാ	-8.2612
▁1	-8.26251
▁യു	-8.26823
ക്കാര	-8.26863
സ്ത	-8.26879
▁മഹാ	-8.26891
▁ലാ	-8.27131
▁അവസാന	-8.27354
▁കോട്ട	-8.2738
▁ചലച്ചിത്ര	-8.27455
▁സ്വ	-8.27671
ലും	-8.27714
ുമായി	-8.27831
രിയ	-8.28101
▁ജന	-8.28124
എം	-8.28172
▁പറയുന്നു	-8.28245
▁എം	-8.2878
▁ദേശീയ	-8.28803
lt	-8.28846
വരെ	-8.28956
▁കഥ	-8.29054
▁പൂ	-8.29106
▁4	-8.29108
ത്തിലുള്ള	-8.29177
രും	-8.29653
▁ഫ	-8.29684
ങ്ങളിലെ	-8.30011
▁കാരണം	-8.30225
▁ആയി	-8.30369
തോടെ	-8.30371
വെ	-8.30391
▁സർക്കാർ	-8.30498
▁10	-8.30523
നീ	-8.30615
▁ഖ	-8.30773
രായ	-8.31246
ുകയുണ്ടായി	-8.31337
▁മറ്റ്	-8.31578
▁പേര്	-8.31627
്യം	-8.31666
ിട്ടുള്ള	-8.3202
▁15	-8.32107
▁ലി	-8.32477
കളാണ്	-8.32555
▁12	-8.32574
gt	-8.32708
▁വന്നു	-8.32845
ീയ	-8.32861
/	-8.33332
▁മാത്രം	-8.33391
▁പ്രകാരം	-8.33416
യ്ക്കു	-8.33833
▁നൽകി	-8.33923
f	-8.34011
▁ആയ	-8.34177
ഖ	-8.34282
ൊരു	-8.34313
സിന്റെ	-8.34336
▁മല	-8.3436
ിംഗ്	-8.34374
▁തമിഴ്	-8.34487
2	-8.34535
▁ചെറു	-8.34701
യിലേക്ക്	-8.34858
▁കൃതി	-8.35218
▁ആദ്യമായി	-8.36022
ങ്	-8.36123
ിരിക്കുന്നത്	-8.36446
▁മാത്രമേ	-8.36486
▁ബന്ധ	-8.36492
▁ഏകദേശം	-8.36527
▁നൽകിയ	-8.36601
▁സംഗീത	-8.36652
ുവ	-8.36685
▁16	-8.3684
▁വിജയ	-8.36946
▁മാറി	-8.37156
ന്ദ	-8.37218
▁അംഗ	-8.37263
ഷ്ട	-8.37265
യ്യ	-8.37305
▁ഏക	-8.37347
▁പോലെ	-8.37726
ഐ	-8.37795
സ്റ്റ്	-8.37914
▁നാ	-8.38052
▁കാണാം	-8.38095
ക്കുന്ന	-8.38247
യിലുള്ള	-8.38474
▁രണ്ടാം	-8.38526
▁ജീവിത	-8.38801
▁ബ്രിട്ടീഷ്	-8.38815
▁തുടങ്ങിയവ	-8.39036
വുമായി	-8.39087
▁നേടി	-8.39216
യുമായി	-8.39288
▁&	-8.39474
ബാ	-8.39543
ത്തോടെ	-8.39558
ിന	-8.3963
▁സ്ഥിതിചെയ്യുന്ന	-8.39767
▁ലെ	-8.39842
ഹി	-8.40194
▁ഇന്ന്	-8.40293
▁നടത്തി	-8.40302
▁കൂ	-8.40459
▁കലാ	-8.40501
▁പ്രദേശ	-8.40601
ത്വ	-8.40705
▁വെള്ള	-8.40736
▁ദിവസം	-8.40742
00	-8.4076
▁ഇന്ത്യയിലെ	-8.41001
ിലാണ്	-8.41034
▁ആർ	-8.41071
▁നിറ	-8.41308
കു	-8.41541
▁മുൻ	-8.41599
▁അമേരിക്കൻ	-8.41797
▁ഉപയോഗിക്ക	-8.41896
ാവുന്ന	-8.4225
▁ഇത്തരം	-8.42291
▁പരി	-8.42368
▁കണ്ട	-8.4242
▁വൈ	-8.42478
ന്നു	-8.42508
▁പാല	-8.42528
▁ഗ്രാമ	-8.42708
▁രീതി	-8.4288
▁കൂടിയ	-8.42942
രെ	-8.42962
കളിലും	-8.4299
al	-8.43147
നിയ	-8.43205
ത്തിന	-8.43362
▁പദ്ധതി	-8.43532
▁നല്ല	-8.43542
▁കല	-8.43555
▁ഇങ്ങനെ	-8.43597
സർ	-8.43694
▁ശക്തി	-8.44266
ിക്കുകയും	-8.44347
ഹാ	-8.44589
▁വ്യക്തി	-8.44667
മെ	-8.44849
g	-8.44994
യം	-8.45105
3	-8.45125
▁അതി	-8.45341
▁സാമ്പത്തിക	-8.45386
▁ഇതു	-8.45657
▁എന്നിവയാണ്	-8.45712
▁മാറ്റ	-8.45787
▁ഹോ	-8.45951
ങ്ങളായ	-8.46017
▁വീണ്ടും	-8.46261
ശി	-8.46594
ജന	-8.47182
ഭാഗ	-8.47234
ഹ്	-8.47356
ജ്	-8.47561
പാ	-8.47638
▁കിലോമീറ്റർ	-8.47698
▁അടി	-8.47715
▁ആധുനിക	-8.47784
പ്പെടുന്ന	-8.47799
വിന്റെ	-8.48108
▁ഇവർ	-8.48142
ഫി	-8.48225
▁എങ്കിലും	-8.48273
▁മികച്ച	-8.48275
b	-8.48633
▁7	-8.4886
സോ	-8.48882
ഗോ	-8.49021
▁6	-8.4915
ശാല	-8.49215
▁ഇല	-8.4935
▁‘	-8.49414
▁പൊതു	-8.49465
▁രാമ	-8.49485
▁പ്രവർത്തന	-8.49508
▁മൂലം	-8.49546
രം	-8.496
▁കണ്ണ	-8.49691
▁19	-8.49745
പ്പെടുന്നു	-8.49989
രോ	-8.5008
പ്പെട	-8.50229
▁ഭാഗ	-8.50321
▁നിര	-8.50347
ത്തിലൂടെ	-8.50552
▁കൊച്ചി	-8.50689
വൻ	-8.51031
ുകള	-8.51061
▁വിദ്യാഭ്യാസ	-8.51063
▁എസ്	-8.5109
ശ്	-8.51222
▁നിന്ന	-8.51327
ട്	-8.51358
കോ	-8.515
ള്ള	-8.51523
▁സ്ത്രീ	-8.51678
▁ദേവ	-8.51705
19	-8.51742
സ്ഥ	-8.5177
▁പ്രവർത്തിക്ക	-8.51844
ാമ	-8.51911
▁ന്	-8.52053
▁8	-8.52082
രാജ	-8.52123
▁ഹെ	-8.5217
▁പ്രതി	-8.52198
ുന്നുണ്ട്	-8.52353
ക്കായി	-8.52356
▁പഴയ	-8.52395
▁കുറഞ്ഞ	-8.52465
▁മൂന്ന്	-8.52761
സിൽ	-8.52859
▁വിഭാഗ	-8.53027
▁കമ്പനി	-8.53041
▁ശാസ്ത്ര	-8.53159
▁കുടുംബ	-8.53252
ോളം	-8.53354
▁ആന	-8.53354
▁ജി	-8.53454
0	-8.5356
ൌ	-8.5356
▁ജില്ല	-8.53653
ത്തിലേക്ക്	-8.53717
▁സ്വതന്ത്ര	-8.53782
▁മേഖല	-8.53841
സു	-8.53971
▁ബോ	-8.5398
▁ഇത	-8.54003
▁ഭ	-8.54071
▁വർഷ	-8.54109
ുണ്ടായ	-8.54117
▁അനു	-8.54138
▁ലഭിച്ച	-8.54289
▁ട	-8.54433
സെ	-8.54534
▁14	-8.54574
k	-8.54753
▁കളി	-8.54824
▁ഉപയോഗിക്കുന്നു	-8.54837
▁എന്നിങ്ങനെ	-8.54938
h	-8.54977
▁യാത്ര	-8.5499
▁ഇപ്പോൾ	-8.54994
▁നാലു	-8.55023
പ്രദേശ	-8.5505
▁കാലത്ത്	-8.55116
നില	-8.55234
▁ഗുരു	-8.55712
ദി	-8.55824
a	-8.55873
തോ	-8.55897
ഭാഷ	-8.56173
▁മധ്യ	-8.56216
ിക്കാൻ	-8.5633
▁എൻ	-8.56523
ുന്നതിന്	-8.56618
രൂപ	-8.56706
▁മാർ	-8.57208
▁കൊ	-8.57237
▁പര	-8.57534
▁ഒന്ന	-8.57604
ാക്കി	-8.57683
▁സിനിമ	-8.5791
▁രോഗ	-8.58012
▁പറഞ്ഞ	-8.58183
ാനായി	-8.58187
▁അറിയപ്പെടുന്നു	-8.5836
▁ചെയ്യുന്നത്	-8.5841
▁11	-8.586
▁മോ	-8.58633
▁മനുഷ്യ	-8.58684
▁അങ്ങനെ	-8.58875
▁ഏറെ	-8.58938
▁ഉയർന്ന	-8.58954
▁വന	-8.59061
ണ്ടി	-8.59067
▁അദ്ദേഹത്തെ	-8.59164
▁ഇന്ത്യയിൽ	-8.59187
▁ഗ്രന്ഥ	-8.59283
▁അതിൽ	-8.59369
▁സംഘടന	-8.59459
ആം	-8.59541
▁നേടിയ	-8.59621
▁പ്രമുഖ	-8.5965
▁പ്രശസ്ത	-8.59746
▁ഗോ	-8.59748
▁ഡോ	-8.59888
▁അൽ	-8.60016
▁വച്ച്	-8.60037
ത്തിനായി	-8.6014
▁സസ്യ	-8.60378
തന്നെ	-8.60572
4	-8.61172
▁പഠന	-8.61202
ന്റ്	-8.61319
▁ഉപയോഗിച്ച്	-8.61396
▁മുഖ്യ	-8.61398
ലോക	-8.61651
le	-8.6169
▁നിന്നാണ്	-8.61853
▁ടി	-8.61973
▁ഗ്രഹ	-8.62002
തിനു	-8.62305
▁മിക്ക	-8.62372
ഴി	-8.62661
ംബ	-8.62838
▁കാരണ	-8.62916
▁നൽക	-8.63066
▁നാടക	-8.63132
’	-8.63252
▁ജെ	-8.63322
▁നടത്ത	-8.63354
▁ഇരു	-8.63437
ക്സ്	-8.63651
▁ബാല	-8.63665
ങ്ങി	-8.63727
േറ്റ	-8.6381
നായിരുന്നു	-8.63869
മുഖ	-8.64058
▁കട	-8.64158
▁മാസ	-8.64312
ക്കുകയും	-8.64412
ോട്	-8.64459
▁ധാരാളം	-8.64629
▁ഇല്ല	-8.64715
▁ഡ	-8.64926
▁മഴ	-8.65004
ക്കൾ	-8.65062
ക്കൽ	-8.65145
▁ലോ	-8.6518
▁മരണ	-8.65181
ട്ടു	-8.65207
കാലത്ത്	-8.65324
▁20	-8.65531
▁ഇംഗ്ലീഷ്	-8.65616
▁നിന്നുള്ള	-8.65777
▁പെ	-8.65812
▁ഫി	-8.65882
▁ഇതിനു	-8.6589
ണ്ണ	-8.65914
▁രൂപം	-8.66028
▁സ്ഥല	-8.66082
▁13	-8.66142
▁മറ്റും	-8.66164
തിൽ	-8.66298
▁ഇദ്ദേഹം	-8.66407
▁റി	-8.6641
an	-8.6644
▁9	-8.66482
r	-8.66605
▁പൊ	-8.66632
▁ദൈവ	-8.66719
▁പ്രതിഷ്ഠ	-8.66884
▁അല്ലെങ്കിൽ	-8.66928
ൂര	-8.66936
▁ചേര	-8.67057
▁ജനുവരി	-8.67111
▁അത	-8.67199
ക്കാൻ	-8.67212
ക്കുള്ള	-8.67348
യുടെയും	-8.67413
▁(19	-8.67554
ലേ	-8.67635
in	-8.67924
re	-8.67978
▁നിർമ്മിച്ച	-8.68
%	-8.68071
▁സ്ഥാനം	-8.68072
▁ട്ര	-8.68393
▁ശിവ	-8.68395
▁മീറ്റർ	-8.68416
▁എഴുതിയ	-8.68435
▁എണ്ണ	-8.68461
വയാണ്	-8.6848
ണ്ഡ	-8.68501
▁കഴിഞ്ഞ	-8.68555
▁അമ്മ	-8.68599
1	-8.68667
ുമ	-8.68679
ഴ്	-8.68723
▁സമുദ്ര	-8.68783
മല	-8.68815
▁ശരീര	-8.68883
യിലൂടെ	-8.68921
ൻസ്	-8.68965
▁ഭൂമി	-8.69058
▁ആവശ്യ	-8.69233
▁“	-8.69285
ാണു	-8.69306
▁നക്ഷത്ര	-8.69575
ിനി	-8.69636
ശാസ്ത്ര	-8.69642
തുമായ	-8.69717
ങ്ങൾക്കും	-8.69834
▁ലഭിച്ചു	-8.69846
ദേശ	-8.69852
നേ	-8.69945
ോട്ട	-8.70072
ാക	-8.7021
▁തി	-8.7023
▁താഴെ	-8.70304
ത്താ	-8.70545
▁അദ്ദേഹത്തിന്	-8.70562
▁പറയ	-8.70567
ri	-8.70648
ാട	-8.70677
യായിരുന്ന	-8.70697
▁പ്രധാനമായും	-8.70836
വിൽ	-8.70842
പരമായ	-8.70882
സ്ഥാന	-8.70905
▁ഇന്ത്യയുടെ	-8.70945
യേ	-8.70953
▁ഭാഗം	-8.71053
▁ജോ	-8.71326
▁ആദ്യം	-8.71354
▁കവി	-8.71398
▁തു	-8.71408
റിന്റെ	-8.71426
കേന്ദ്ര	-8.71628
േഷൻ	-8.71732
ഗ്ര	-8.71833
u	-8.7193
▁സഹ	-8.72006
▁തീര	-8.72035
ലാണ്	-8.72075
ക്കര	-8.72178
ra	-8.72391
▁പേർ	-8.72408
▁ന്യൂ	-8.72427
▁നെ	-8.7246
മില്ല	-8.72464
▁സമ	-8.72512
ടുത്ത	-8.72594
▁ചൈന	-8.72696
▁കൃഷ്ണ	-8.72957
കാലം	-8.7302
▁അമേരിക്ക	-8.73026
▁പ്രകാശ	-8.73112
▁മണ്ണ	-8.7325
ശേഷം	-8.733
only	-8.73316
▁സംസ്കൃത	-8.73325
ങ്ങളായി	-8.7343
▁സൈനിക	-8.73451
ലു	-8.73527
▁30	-8.73585
include	-8.73588
▁സംഘ	-8.7375
ചി	-8.73843
▁മുൻപ്	-8.73869
▁ക്രി	-8.7391
വന	-8.73955
▁അടിസ്ഥാന	-8.74087
▁പോ	-8.74146
▁ഉപയോഗിക്കുന്ന	-8.74218
▁ഫാ	-8.74307
▁നിർമ്മാണ	-8.74351
▁കാര്യ	-8.74356
▁ഇതിനെ	-8.74439
▁25	-8.74487
▁ഏതാണ്ട	-8.74561
▁വ്യത്യസ്ത	-8.74608
തിന്റെ	-8.74697
i	-8.74756
നിൽ	-8.74802
വുമായ	-8.74809
▁ഹാ	-8.74933
▁പദ	-8.7519
ഞ്ഞു	-8.75354
▁വിദേശ	-8.75444
▁റോ	-8.75825
ുകയായിരുന്നു	-8.7593
▁പേര	-8.76196
്യാ	-8.76363
▁വിശ്വാസ	-8.76365
▁ഇൻ	-8.76547
പ്പു	-8.76857
റേ	-8.76894
ിനും	-8.76962
ജ്ഞ	-8.77113
er	-8.77271
ിൻ	-8.77321
വാദ	-8.77491
▁അതിനു	-8.77583
▁പക്ഷേ	-8.77598
▁ഒന്നാം	-8.77613
നിര	-8.78011
ക്ഷേത്ര	-8.78133
▁ഭൂ	-8.78188
▁തീ	-8.78297
ഭരണ	-8.78308
▁ഫല	-8.78345
ന്നി	-8.78515
▁മഞ്ഞ	-8.78712
▁s	-8.7879
പോ	-8.78793
▁ഔദ്യോഗിക	-8.78858
കളായ	-8.78859
ുകളെ	-8.78935
ാസ്	-8.7902
▁അട	-8.79054
രീ	-8.79228
ഭാവ	-8.79751
▁അധികാര	-8.79751
▁കൊല്ല	-8.7978
ഷി	-8.7984
▁താ	-8.79909
▁എന്നത്	-8.80136
ലിന്റെ	-8.80159
▁മൂല	-8.802
▁:	-8.80285
പുര	-8.80414
ക്ത	-8.80424
▁സമര	-8.80627
▁ജാതി	-8.80632
▁ഏപ്രിൽ	-8.81111
▁നിലവിൽ	-8.81213
ിക്കുന്നത്	-8.81305
▁ആഘോഷ	-8.81349
മായും	-8.81412
പ്രകാരം	-8.81426
▁വിഷയ	-8.81434
▁വ്യവസായ	-8.81453
▁യൂ	-8.81541
ഷൻ	-8.81542
▁ചേർന്ന്	-8.81751
▁സർ	-8.8176
▁തിരിച്ച	-8.81806
ടു	-8.81842
മാര	-8.81875
തല	-8.81925
വാസ	-8.8206
▁മാർച്ച്	-8.82109
▁സ്ഥാപന	-8.82323
മര	-8.82368
കർ	-8.82369
്യൂ	-8.82487
രീതി	-8.8253
▁യ	-8.82618
വന്ന	-8.82746
ിലൂടെ	-8.82806
ിലുള്ള	-8.82935
▁കള	-8.82962
▁നമ്പൂതിരി	-8.83126
ലുകൾ	-8.8313
▁സ്വയം	-8.83136
▁സംഭവ	-8.83142
വീ	-8.83308
▁ഫെബ്രുവരി	-8.83345
സഭ	-8.83413
തെ	-8.83483
തിന്	-8.83599
ദാ	-8.83901
▁വേദ	-8.83968
▁അര	-8.84053
▁അറബി	-8.84251
▁ഉണ്ടായിരുന്നു	-8.84329
▁സമയം	-8.84347
▁ഭഗവതി	-8.84459
▁സമയ	-8.84511
▁ആദ്യകാല	-8.84514
ുണ്ടായിരുന്ന	-8.84849
▁പത്ര	-8.85021
▁മാറ്റി	-8.85056
▁നിർമ്മിക്ക	-8.85109
▁ഒക്ടോബർ	-8.85181
കല	-8.85188
ഡോ	-8.85327
▁ഡെ	-8.85401
▁തമ്മിൽ	-8.85427
▁ഉണ്ടായ	-8.85448
▁കൊണ്ട	-8.85457
▁തെ	-8.85595
▁ഡിസംബർ	-8.85646
റ്റു	-8.85658
ത്തിനുള്ള	-8.85768
▁ബന്ധപ്പെട്ട	-8.85783
▁സാമ്രാജ്യ	-8.85803
▁തോ	-8.8581
is	-8.85909
▁പൂജ	-8.85954
▁കൂട	-8.86011
▁പ്രധാനപ്പെട്ട	-8.86265
▁ചേർന്ന	-8.86331
▁അതിനാൽ	-8.86357
l	-8.86475
ധി	-8.86663
▁തങ്ങളുടെ	-8.86666
▁സമയത്ത്	-8.86799
ക്രമ	-8.86836
▁വിവാഹം	-8.8693
▁പാട	-8.87115
യ്ക്കും	-8.87171
▁പുരാതന	-8.8726
▁പാത	-8.87331
▁ഉത്തര	-8.87616
ിയും	-8.87651
▁വില	-8.87866
ആർ	-8.87901
ിട്ടില്ല	-8.87957
▁മേൽ	-8.87959
▁അതു	-8.87974
▁തിരു	-8.88012
ത്തേ	-8.88061
ദ്ര	-8.8814
▁കുട്ടി	-8.88403
ഖ്	-8.88411
ന്ന്	-8.8886
▁സ്വന്തം	-8.88902
ത്വം	-8.88944
വല	-8.88978
w	-8.89026
▁പുസ്തക	-8.89029
▁അറിയ	-8.89074
ത്തന്നെ	-8.89261
▁ബെ	-8.89285
മാക	-8.89302
ർത്ത	-8.89419
ഹാര	-8.89458
ഭി	-8.89553
▁ജൂൺ	-8.89583
സീ	-8.89661
▁കണ്ടെത്തിയ	-8.89737
▁തിരഞ്ഞെടുക്ക	-8.89868
▁അഞ്ചു	-8.89902
▁ശ്രദ്ധ	-8.89971
▁of	-8.90039
▁കണ്ടെത്ത	-8.90194
▁വിദ്യാഭ്യാസം	-8.90261
▁നൂറ്റാണ്ടിൽ	-8.90303
▁മുഖ	-8.90461
പര	-8.90479
▁ചിന്ത	-8.90528
ഉ	-8.90563
▁വൻ	-8.90591
▁ക്ല	-8.90709
പ്പോ	-8.90836
മല്ല	-8.90938
▁നവംബർ	-8.91175
ദേവ	-8.912
▁ജൂലൈ	-8.91268
▁ദേശ	-8.91357
ർക്ക്	-8.91378
▁പ്രകൃതി	-8.91445
▁പേരു	-8.91504
6	-8.91539
മാക്കി	-8.91738
▁ദേവി	-8.91772
ിയുടെ	-8.91838
▁ഷ	-8.91856
▁സാമൂഹിക	-8.91897
▁ബ്ര	-8.92046
▁തരം	-8.92047
െടുത്ത	-8.92215
ത്തിയ	-8.92343
കൊണ്ട്	-8.92345
ലിയ	-8.92352
▁ഊ	-8.92377
ബന്ധ	-8.92394
or	-8.92719
▁കീഴിൽ	-8.92735
▁ഇതിന്	-8.93002
▁കല്ല	-8.93015
ാനു	-8.93315
5	-8.93354
നാട്	-8.93356
▁ജയ	-8.9339
▁പ്രസിദ്ധീകരിച്ച	-8.93458
▁മാത്രമാണ്	-8.93462
▁അവകാശ	-8.93489
▁മേ	-8.93699
▁രചിച്ച	-8.93763
,000	-8.93844
▁m	-8.93954
▁മഹ	-8.94037
ഘ	-8.94097
ുന്നതിനു	-8.94126
മേഖല	-8.94172
ിൻറെ	-8.94193
▁ചി	-8.94282
▁നാമ	-8.94285
▁c	-8.9431
പു	-8.94337
▁ദക്ഷിണ	-8.94362
▁ജനങ്ങൾ	-8.94412
▁താപനില	-8.94526
ത്യ	-8.94536
കൻ	-8.94538
ന്മാരുടെ	-8.946
▁വാദ	-8.94797
ച്ചി	-8.94808
▁മുഴുവൻ	-8.94859
ാണ	-8.94907
ത്തും	-8.94947
▁വ്യവസ്ഥ	-8.94992
”	-8.95028
▁അതിർത്തി	-8.95066
▁ദാ	-8.95069
▁കഴിയ	-8.95111
യാർ	-8.95128
യിട	-8.95145
മന	-8.95182
▁തിരിച്ചു	-8.95221
▁അല	-8.95483
ാലും	-8.95645
en	-8.95679
വരും	-8.95684
ാര	-8.95713
▁പ്രാ	-8.95895
▁തട	-8.96037
ുന്നതിനും	-8.96047
രിക്ക	-8.96117
ഗാ	-8.96177
ദ്ധ്യ	-8.96223
ലീ	-8.96254
▁ദി	-8.96264
ീസ്	-8.96274
▁ബല	-8.96282
▁ജനിച്ചു	-8.96404
▁രക്ത	-8.96417
▁തുടർന്നു	-8.96421
▁പോക	-8.96459
▁ജീവിതം	-8.96486
ുമായിരുന്നു	-8.96659
▁ഗാന്ധി	-8.96712
▁പറഞ്ഞു	-8.96812
ുമാണ്	-8.96819
ാല	-8.96907
▁കോഴിക്കോട്	-8.96934
വായ	-8.97004
യാൽ	-8.97104
▁ഗവേഷണ	-8.97196
▁ജീവി	-8.97206
▁ഒരേ	-8.9725
▁രീതിയിൽ	-8.97312
▁ദിവസ	-8.97377
▁മീ	-8.97463
▁ദ്വീപ	-8.97545
▁രക്ഷ	-8.97554
▁ജനസംഖ്യ	-8.97632
▁)	-8.97646
▁നാഗ	-8.977
തിനെ	-8.97809
▁ഒറ്റ	-8.97836
കളായി	-8.97846
▁വ്യാപാര	-8.97873
ത്തിൻറെ	-8.97873
ാക്ക	-8.97954
പ്ത	-8.98008
▁നായർ	-8.98145
li	-8.98165
▁നിലയിൽ	-8.98271
പദ	-8.98272
യുമാണ്	-8.98307
▁പറയുന്നത്	-8.98399
ീകരണ	-8.98413
തീ	-8.98429
▁ഇസ്	-8.98478
യുടേയും	-8.98512
ിയൻ	-8.98594
എൻ	-8.98635
ാറ	-8.98688
▁കൊണ്ടു	-8.98842
വഴി	-8.9885
വൈ	-8.98871
ബോ	-8.98879
മാണിത്	-8.98983
▁മുഹമ്മദ്	-8.99069
▁മദ്ധ്യ	-8.99125
▁വിവര	-8.9913
കളിലെ	-8.99141
▁സമൂഹ	-8.99198
▁നടക്കുന്ന	-8.99648
വുമാണ്	-8.99669
▁കാലാവസ്ഥ	-8.99778
▁ഭാര്യ	-8.99839
ുന്നതിൽ	-8.99844
ുണ്ടായിരുന്നു	-8.99953
ോൺ	-9.00066
▁ഫോ	-9.00212
▁ഭാരത	-9.00281
▁സമീപ	-9.00302
ുള്ളൂ	-9.00444
▁ബുദ്ധമത	-9.00531
റും	-9.00566
▁ചേർന്നു	-9.00635
▁അന്താരാഷ്ട്ര	-9.00649
▁b	-9.00669
ങ്ങ്	-9.00682
▁സീ	-9.008
ക്ട	-9.00849
ൃ	-9.00903
▁മരണം	-9.00988
7	-9.01013
കരിക്ക	-9.01059
ch	-9.0108
ദ്ധ	-9.01119
▁അക്കാദമി	-9.01192
െന്നും	-9.01324
▁മൂലക	-9.01374
on	-9.0143
▁ജാ	-9.01502
റിൽ	-9.0156
പ്പിക്ക	-9.01566
8	-9.0161
▁ചേ	-9.01819
ക്കുന്നു	-9.01877
ണ്	-9.0192
മൂ	-9.01921
▁കമ്പ്യൂട്ടർ	-9.02104
▁ക്ഷേത്രത്തിൽ	-9.02185
▁ഹി	-9.02326
▁ആശയ	-9.02405
▁ഒര	-9.02526
രാജ്യ	-9.02594
▁പു	-9.02634
▁സംവിധാനം	-9.02712
▁രാഷ്ട്ര	-9.0292
ല്യ	-9.02978
നിറ	-9.03056
ടുക്ക	-9.03075
▁അതേ	-9.03187
▁കാലം	-9.0328
തെന്ന്	-9.03384
▁തവണ	-9.03387
▁അന്തരീക്ഷ	-9.03396
▁യുദ്ധം	-9.03397
▁മന	-9.03483
▁സഹായ	-9.03485
പ്പെടുകയും	-9.03559
▁മുമ്പ്	-9.03629
▁കാണപ്പെടുന്ന	-9.03789
▁സ്വാതന്ത്ര്യ	-9.03801
വർഷ	-9.03909
ാളി	-9.03974
സൈ	-9.04061
▁ചിത്രം	-9.04133
മാൻ	-9.04138
▁കോടി	-9.04212
ന്മാര	-9.04214
▁പേ	-9.04251
ക്കാല	-9.04263
▁കോടതി	-9.04318
െല്ലാം	-9.04329
▁മാന	-9.04453
▁ഇന്നും	-9.04459
▁വിമാന	-9.0457
ിയായ	-9.04583
ിക്കൽ	-9.04656
▁കാണപ്പെടുന്നു	-9.04657
ശക്തി	-9.04697
us	-9.04775
▁പട	-9.04837
ഷ്യ	-9.0501
വള	-9.05076
▁മണി	-9.05128
ിക്കപ്പെട്ട	-9.05179
മത	-9.05263
▁മൂ	-9.05401
ത്തോളം	-9.05436
മാരുടെ	-9.05506
ങ്ങൾക്കു	-9.05535
▁തിര	-9.05636
▁കണ്ടു	-9.05698
▁ക്ര	-9.05812
▁പുഴ	-9.05819
കാര്യ	-9.05917
യൻ	-9.05949
▁നടത്തുന്ന	-9.06058
▁ചു	-9.06067
ാസ	-9.06085
▁വാണിജ്യ	-9.06102
യുണ്ട്	-9.06219
▁റെ	-9.06532
ശ്ശേരി	-9.06579
മ്പ്	-9.06613
20	-9.06673
▁ഔഷധ	-9.06787
▁കേ	-9.06805
ബർ	-9.06809
▁p	-9.06849
▁സോ	-9.06866
▁വീ	-9.06884
ത്തിന്റെയും	-9.06892
▁ഹിന്ദു	-9.06988
▁തീരുമാന	-9.07074
യെന്ന	-9.07174
ുന്നതിനായി	-9.07215
▁മൊ	-9.07341
▁കോൺഗ്രസ്	-9.07367
▁അവയുടെ	-9.07378
ക്കിടയിൽ	-9.07406
▁മുട്ട	-9.07443
▁24	-9.07461
രാമ	-9.07467
ങ്ങളില	-9.07474
▁സാംസ്കാരിക	-9.07506
▁അപ	-9.07534
▁പഞ്ച	-9.07563
▁അവസ്ഥ	-9.07641
ലിൽ	-9.07706
▁സ്കൂൾ	-9.07761
▁പോലും	-9.07786
▁വിപ്ലവ	-9.07883
▁തമ്മിലുള്ള	-9.07979
മായിരുന്ന	-9.0799
▁കണക്കാക്ക	-9.08016
▁ഇതേ	-9.08047
കട	-9.08049
▁ഭാഷാ	-9.0806
▁നിർ	-9.08154
▁സ്ഥാപിച്ച	-9.08264
ാമത്തെ	-9.08294
▁നായ	-9.08299
േറ്റ്	-9.08341
10	-9.08388
ര്യ	-9.08393
ച്ഛ	-9.08415
▁സെപ്റ്റംബർ	-9.0842
▁പക്ഷി	-9.08459
നട	-9.08515
സര	-9.08537
പോലെ	-9.0863
▁മറ	-9.08789
▁പ്രസിദ്ധ	-9.08807
▁ചക്രവർത്തി	-9.08877
റുകൾ	-9.08908
▁കരുതുന്നു	-9.0892
മെന്ന	-9.0912
ാനി	-9.09126
ോസ്	-9.09362
ീന	-9.09559
▁കുട	-9.0961
േണ്ട	-9.09664
▁വികസന	-9.097
ാരി	-9.09861
▁എഴുത	-9.0999
▁രണ്ടാമത്തെ	-9.10024
▁പകരം	-9.10046
പ്പുഴ	-9.10061
▁ഭക്ഷണ	-9.10072
േണ്ടി	-9.10119
പരി	-9.10138
▁കവിത	-9.10167
▁ഘടക	-9.10206
▁അക്ഷര	-9.10249
▁ലോഹ	-9.10252
▁വിശുദ്ധ	-9.1035
▁യോഗ	-9.10419
▁വിശ്വാസം	-9.10471
▁സത്യ	-9.1049
രണ	-9.10494
▁തന്നെയാണ്	-9.10556
ർമ്മ	-9.10593
▁പന്ത	-9.10599
▁ബ്രാഹ്മണ	-9.10666
▁ലോകത്തിലെ	-9.10705
▁താൻ	-9.10754
▁അന്നത്തെ	-9.10836
▁സ്ഥിര	-9.10839
▁എത്ത	-9.10861
▁വയസ്സിൽ	-9.10887
▁മലയാളം	-9.1089
ങ്ങളിലൂടെ	-9.10891
▁വരെയുള്ള	-9.10938
▁നിറഞ്ഞ	-9.10938
ോള	-9.11001
ല്പ	-9.11113
ന്തി	-9.11275
▁ചർച്ച	-9.11323
▁ലഭിക്ക	-9.1142
▁പദവി	-9.11437
▁പച്ച	-9.11469
ക്ഷേത്രം	-9.11482
▁ഭരണം	-9.11502
നായിരുന്ന	-9.11526
▁സ്ഥാപിക്ക	-9.11608
▁കാർ	-9.11644
x	-9.1171
▁പുറമേ	-9.1174
ാദി	-9.11741
▁രേഖ	-9.11741
▁പ്രസ്ഥാന	-9.11751
▁വാഴ	-9.1179
ഗണ	-9.11802
ിയത്	-9.11931
▁23	-9.11953
യോടെ	-9.11987
▁നാഷണൽ	-9.1213
ക്കുറിച്ചുള്ള	-9.12146
▁പുറത്തു	-9.12333
▁നേതൃത്വത്തിൽ	-9.12432
െന്ന	-9.12453
കരമായ	-9.12478
▁തേ	-9.12556
▁കാണുന്ന	-9.12611
ഒ	-9.12625
ജെ	-9.12663
▁ഉപയോഗ	-9.12683
രംഗ	-9.12731
െങ്കിൽ	-9.12849
േശ്വര	-9.12908
▁ഗാ	-9.1297
es	-9.13027
▁ആരംഭിച്ചു	-9.13062
▁വെച്ച്	-9.13105
ുകയോ	-9.13121
ക്ര	-9.13163
▁സാധാരണയായി	-9.13313
▁എന്നിവർ	-9.13313
▁അന്ന്	-9.13326
എൽ	-9.13369
െയ്	-9.13536
▁തടാക	-9.13573
▁ചോ	-9.13575
ിങ്	-9.13625
z	-9.13756
▁റാ	-9.13794
വിള	-9.1387
▁സൂചിപ്പിക്കുന്ന	-9.13933
വാര	-9.13954
ഃ	-9.13957
la	-9.14028
15	-9.14046
ക്സ	-9.14089
റെ	-9.14211
▁നാല്	-9.14242
▁പെട്ട	-9.14269
▁ജോൺ	-9.14317
▁പിന്തുണ	-9.14325
ുകയാണ്	-9.14411
▁അഭിപ്രായ	-9.14472
ത്തേക്ക്	-9.14543
പാട	-9.14591
▁താര	-9.14713
▁കരുതപ്പെടുന്നു	-9.14753
▁ചെടി	-9.14764
▁നൽകുന്ന	-9.14766
കൊ	-9.1484
ാംഗ	-9.14924
▁പറ	-9.14968
▁ക്രിക്കറ്റ്	-9.14982
എന്നറിയപ്പെടുന്ന	-9.14996
▁ആരോഗ്യ	-9.15001
▁തെക്കേ	-9.1501
ുകൊണ്ട്	-9.15023
▁22	-9.15026
▁വർഗ്ഗ	-9.15034
ോപ	-9.15228
▁ബ്രഹ്മ	-9.15238
▁ഉദാഹരണ	-9.1525
▁രംഗ	-9.15256
ro	-9.15288
▁ഡാ	-9.15289
ചിത്ര	-9.15296
▁സംസ്കാര	-9.15424
",	-9.15471
▁അറിയപ്പെടുന്നത്	-9.15482
സ്യ	-9.15488
ാവസ്ഥ	-9.1549
പ്പള്ളി	-9.15612
മ്പു	-9.15618
ിട്ട	-9.15797
▁സൗദി	-9.15847
കൾക്കും	-9.15874
▁ശബ്ദ	-9.15948
▁കടന്നു	-9.16035
മാത്ര	-9.16038
▁മാറ	-9.16055
v	-9.16171
ഫല	-9.16256
▁കടല	-9.16408
▁മുസ്	-9.16423
▁കഥാപാത്ര	-9.1643
▁പിന്നിൽ	-9.16432
▁ടെ	-9.16438
▁അറിയപ്പെടുന്ന	-9.1658
യോട്	-9.16642
ിരുന്നില്ല	-9.16867
▁ഉപയോഗിക്കുന്നത്	-9.16869
▁തിരുവനന്തപുരം	-9.16897
ൻഡ	-9.16903
▁കുള	-9.16912
▁ക്ഷേത്രത്തിലെ	-9.17096
ഢ	-9.17107
▁ഗണപതി	-9.17111
▁ക്യൂബ	-9.17115
▁ബു	-9.17202
ur	-9.17228
▁നവ	-9.17277
▁ഉപയോഗിച്ച	-9.17285
▁ഗാന	-9.17385
▁ചന്ദ്ര	-9.17392
▁നീ	-9.17446
▁വളർച്ച	-9.17457
;/	-9.17497
▁മുമ്പ	-9.17511
▁പ്രദേശം	-9.17627
▁അക്കാലത്ത്	-9.1764
▁വൃത്ത	-9.17675
മൻ	-9.17701
▁പറയപ്പെടുന്നു	-9.1775
പ്പാ	-9.17774
ത്തോട്	-9.17828
▁ഒന്നാണ്	-9.17831
▁ആക്രമണ	-9.17874
പക്ഷ	-9.17897
▁ഫ്ര	-9.17903
മാക്ക	-9.17961
സൺ	-9.18151
▁സ്റ്റ	-9.18296
▁അക	-9.18311
▁രാസ	-9.18325
▁പാറ	-9.18361
▁ഭാഗമായി	-9.18436
പാദ	-9.18506
ാഴ്ച	-9.18571
▁സോഫ്റ്റ്	-9.18613
▁ചിത്രങ്ങൾ	-9.18619
▁പോലുള്ള	-9.18628
ുന്നതും	-9.18758
▁തിരുവിതാംകൂർ	-9.18826
▁പറയുന്ന	-9.18856
ല്ലാ	-9.18886
▁പൊതുവേ	-9.18966
▁ടീമ	-9.18974
ഓ	-9.19046
ംഗ്	-9.19106
തായിരുന്നു	-9.19123
ൈറ്റ്	-9.19152
▁ഉത്സവ	-9.19196
▁കാവ	-9.19316
തര	-9.19397
▁ഉപയോഗിച്ചിരുന്ന	-9.19536
▁ഇര	-9.19574
ന്നാ	-9.19601
ിങ്ങ്	-9.19667
വരുടെ	-9.19722
ാൾ	-9.19728
▁വംശ	-9.19756
▁ഉണ്ടാവ	-9.1978
▁എണ്ണം	-9.1987
▁നീല	-9.19963
▁അദ്ദേഹ	-9.1997
▁ഓഗസ്റ്റ്	-9.20015
▁ആചാര	-9.20016
▁ഇന്നത്തെ	-9.20067
▁മത്സര	-9.20082
▁അരി	-9.20088
▁പ്രധാനമന്ത്രി	-9.20242
▁പഴ	-9.20298
▁സൈ	-9.20427
▁പുറത്ത	-9.2044
▁മന്ത്രി	-9.20599
▁അർ	-9.2069
ത്താണ്	-9.20756
▁വിളിക്കുന്നു	-9.20793
▁ബേ	-9.20796
പുരം	-9.208
▁പണ്ഡിത	-9.20829
ാർത്ഥ	-9.20881
▁വിവരങ്ങൾ	-9.2093
▁പ്രശ്ന	-9.20942
രേഖ	-9.21015
▁a	-9.21092
▁ഏഷ്യ	-9.21107
▁മുതല	-9.21111
▁സഹോദര	-9.21235
കഥ	-9.2125
▁രാത്രി	-9.21448
▁26	-9.21542
▁വളർത്ത	-9.21558
ബ്ര	-9.21579
സ്വ	-9.21601
▁ജന്മ	-9.21617
▁സ്വീകരിച്ച	-9.21798
▁21	-9.21819
▁ചൂട	-9.21913
ing	-9.221
▁സ്വീകരിക്ക	-9.22109
▁കടൽ	-9.22122
സൂ	-9.22133
▁തര	-9.2214
▁കൂടെ	-9.22244
▁പ്രാദേശിക	-9.22355
െന്ന്	-9.22404
▁എൽ	-9.22421
▁പരീക്ഷണ	-9.22491
മായാണ്	-9.22514
▁ചെയ്യാൻ	-9.22523
ങ്ങളുമായി	-9.22573
▁അവതരിപ്പിക്ക	-9.2258
▁f	-9.22595
കൊണ്ടു	-9.22635
▁ഉപയോഗിച്ചു	-9.22727
▁ബീ	-9.22753
18	-9.22782
പ്പെട്ടത്	-9.22889
▁പോയ	-9.23022
വ്യ	-9.23026
▁വളരെയധിക	-9.2303
▁ഹിന്ദി	-9.23036
▁ശാസ്ത്രീയ	-9.23113
▁ഭാവ	-9.23191
▁വരുന്നു	-9.23222
▁ബുദ്ധ	-9.23246
▁പരസ്പര	-9.23257
50	-9.23267
▁കിഴക്കൻ	-9.23296
▁തെക്കു	-9.23353
▁പട്ടണ	-9.23392
ിട്ടുള്ളത്	-9.23395
▁കോളേജ്	-9.23502
സ്റ്റി	-9.23505
▁മെയ്	-9.23598
ുകളിലും	-9.23657
▁സമുദായ	-9.23664
ാന്ത	-9.23761
▁ജനിച്ച	-9.23803
▁സുറിയാനി	-9.23938
നിന്നും	-9.23979
▁കണ	-9.24004
te	-9.24016
ധ്യ	-9.24097
ic	-9.24127
▁വിള	-9.24174
▁നാരായണ	-9.24229
▁പിൻ	-9.2426
▁27	-9.24307
▁the	-9.24327
▁ഉണ്ടാക്ക	-9.24399
▁പാർ	-9.24427
ിച്ചത്	-9.24459
യൂ	-9.24584
ഷ്ഠ	-9.24728
▁രാ	-9.24762
▁പ്രവർത്തിച്ച	-9.24791
▁സൗകര്യ	-9.24833
▁‍	-9.24854
▁രണ്ട	-9.24894
പതി	-9.2494
▁ഉത്	-9.24984
▁ഹരി	-9.25021
കരണ	-9.25061
ാണി	-9.25109
▁2008	-9.25127
നിന്നു	-9.25136
▁ഹൈ	-9.25147
▁ഫെ	-9.25167
കൃത	-9.25189
▁ശിക്ഷ	-9.25226
യാന	-9.25259
▁അവർക്ക്	-9.25274
ക്കൊ	-9.25291
▁യാ	-9.25322
▁നിൽക്കുന്ന	-9.25328
▁സ്വകാര്യ	-9.25347
▁മൃഗ	-9.25388
കേ	-9.25526
▁അതിനെ	-9.25586
▁ധ	-9.25676
▁മാത്രമല്ല	-9.25791
▁ഭരണഘടന	-9.25803
പന	-9.25939
ത്തോ	-9.25946
േർ	-9.26011
me	-9.26044
▁50	-9.26154
▁ഇവയുടെ	-9.26158
▁വ്യാ	-9.26193
ണ്ടു	-9.26218
താവ	-9.26248
യേയും	-9.26312
▁കണ്ണൂർ	-9.26359
▁ഞ	-9.26374
▁അറിവ	-9.26472
വിനെ	-9.26537
ത്താൽ	-9.26564
▁പഞ്ചായത്ത	-9.26629
▁കുന്ന	-9.26671
▁കാര	-9.26676
▁കറുത്ത	-9.26717
▁അഭി	-9.26765
▁ധന	-9.26781
▁ഇഷ്ട	-9.26883
ബു	-9.269
▁നേ	-9.26901
▁അന	-9.2695
മണി	-9.26975
▁28	-9.27011
മർ	-9.27018
സാഹിത്യ	-9.27023
ൊന്നും	-9.27045
▁ഷാ	-9.27049
ധാര	-9.27058
▁യൂറോപ്യൻ	-9.27086
▁അധിക	-9.27122
9	-9.2713
▁കാർഷിക	-9.27187
▁ലേഖന	-9.27204
▁ജീവ	-9.27274
▁ഉണ്ടായിരുന്ന	-9.27292
ോൾ	-9.27292
▁കരി	-9.27307
▁സർക്കാര	-9.27392
▁വ്യത്യാസ	-9.27489
▁സ്പ	-9.27515
▁കുറ്റ	-9.27587
▁ഉണ്ടാക	-9.27611
ത്തേയും	-9.2764
am	-9.27721
▁കെട്ടിട	-9.27738
▁വിവാഹ	-9.27747
▁ഉയര	-9.27808
▁കൊടുത്ത	-9.27859
ാണിത്	-9.27863
വർഷം	-9.27928
▁തുടക്കം	-9.27945
ത്തിലേ	-9.27976
▁പഠനം	-9.28098
വേദ	-9.28119
▁രാജ്യത്തിന്റെ	-9.28227
▁അധികം	-9.2828
ലം	-9.28323
▁കാലഘട്ടത്തിൽ	-9.28329
▁ശക്തമായ	-9.28329
▁ശരാശരി	-9.28368
▁യൂറോപ്പ	-9.28409
▁രാജാവ്	-9.28434
ാണെന്ന്	-9.28477
ർജ്ജ	-9.28508
▁വർണ്ണ	-9.2857
▁പിതാവ്	-9.28608
ാലി	-9.28649
തിര	-9.28685
ചെ	-9.28714
ൊക്കെ	-9.28725
▁മാതൃക	-9.28815
▁ലൈംഗിക	-9.28845
at	-9.28846
▁ഗ്ര	-9.28882
▁ബന്ധം	-9.28916
▁വിഷ	-9.28945
ല്	-9.28953
ക്കെതിരെ	-9.29001
ർജ	-9.29024
ത്തുള്ള	-9.29026
സ്വാമി	-9.29057
യോഗ	-9.29175
ക്കാണ്	-9.29249
▁അന്ത്യ	-9.29305
▁തൃശ്ശൂർ	-9.29326
ച്	-9.29338
▁ആറു	-9.2935
▁പോലീസ്	-9.29383
▁രാജ്യം	-9.29461
ട്ടിൽ	-9.2947
▁ശൈലി	-9.29536
▁സിദ്ധാന്ത	-9.29665
▁നൂറ്റാണ്ടിന്റെ	-9.29677
▁ആരംഭിച്ച	-9.2974
ക്ഷി	-9.29749
]	-9.2979
മാല	-9.29829
▁സൈന്യ	-9.29859
ാവുന്നതാണ്	-9.29865
മാവ	-9.29946
▁ടോ	-9.29966
▁വിദ്യാർത്ഥി	-9.29978
▁മുകളിൽ	-9.29982
ിക്	-9.29999
ഞ്ജ	-9.30005
▁പഠിക്ക	-9.30018
▁ഇതിന	-9.30081
▁നിർദ്ദേശ	-9.30085
പൂജ	-9.30215
കാർ	-9.30226
ക്സി	-9.30227
ർണ	-9.30306
▁പട്ട	-9.30319
▁പ്രശസ്തമായ	-9.30505
തേ	-9.30564
ിച്ചിരുന്നു	-9.3057
▁നോവല	-9.30579
പെ	-9.30585
▁ഗണ	-9.30591
▁അനേകം	-9.30649
▁ര	-9.30659
യാണു	-9.30707
പ്പറ	-9.3073
▁2007	-9.30794
ങ്ങളുണ്ട്	-9.30817
▁സംഭാവന	-9.30912
ാപ	-9.31071
ഗ്രന്ഥ	-9.31167
മൂല	-9.31197
▁ചെയ്തത്	-9.31207
ണാ	-9.31258
ോട	-9.3138
▁യോ	-9.31421
▁എഴുതി	-9.31454
▁സ്ഥലം	-9.31523
▁ഇവയിൽ	-9.3161
ാലയ	-9.31619
▁ദൂര	-9.31661
റിഞ്ഞ	-9.31666
▁മൂന്ന	-9.31711
ക്കാരുടെ	-9.31738
േയും	-9.3174
▁പ്രതിരോധ	-9.31776
▁റേഡിയോ	-9.31799
രോഗ	-9.31962
▁വിര	-9.32037
ങ്ങളെയും	-9.32113
ഈ	-9.32165
▁മൂന്നാം	-9.32208
▁പുറത്തിറങ്ങിയ	-9.32211
ha	-9.32372
▁സ്വാധീന	-9.32424
ലൈ	-9.32454
മൂർത്തി	-9.32501
▁തെക്ക്	-9.32545
▁ഇവരുടെ	-9.32599
വില	-9.328
st	-9.32824
▁ഉച്ച	-9.32857
ഠ	-9.32863
ണമെന്ന	-9.32866
▁മേയ്	-9.3287
▁അടങ്ങിയ	-9.32873
▁കുറവ	-9.32896
▁ഗു	-9.32906
ഞ്ചി	-9.32953
ുമായുള്ള	-9.32979
▁പ്രാധാന്യം	-9.33031
]],	-9.33089
▁കമ്പ	-9.33133
ജാ	-9.33207
▁പ്രത്യേകത	-9.33237
പൂർ	-9.33263
▁നിരീക്ഷണ	-9.33271
ിന്റെയും	-9.33296
വരാണ്	-9.33318
ത്തെയും	-9.33329
▁എന്ത	-9.33351
മാസ	-9.33459
▁കാഴ്ച	-9.33465
ങ്ങളുടെയും	-9.33477
ുകൾക്ക്	-9.33531
ഭവ	-9.3354
▁ഉന്നത	-9.3354
▁വടക്കു	-9.33563
▁ശാഖ	-9.33685
ല്ലി	-9.33703
▁സംബന്ധിച്ച	-9.33748
▁പാശ്ചാത്യ	-9.33755
▁വധശിക്ഷ	-9.33755
ta	-9.33774
▁ഉപഗ്രഹ	-9.33784
പെട്ട	-9.33791
▁ആക	-9.33798
▁എന്നതാണ്	-9.33873
▁അപ്പ	-9.33919
റ്റാ	-9.33946
▁പാരമ്പര്യ	-9.34024
▁മൈ	-9.34063
▁അഞ്ച	-9.34111
▁വടക്ക്	-9.34114
സേ	-9.34121
▁സൂ	-9.34134
ദർ	-9.34173
ിക്കുക	-9.34295
no	-9.34321
▁വടക്കേ	-9.34322
▁പാലക്കാട്	-9.34348
ക്കാട്	-9.34372
▁സാങ്കേതിക	-9.34497
ികളുടെ	-9.34498
▁മലബാർ	-9.34513
▁അലി	-9.34593
വരുന്നു	-9.34615
▁യുദ്ധത്തിൽ	-9.34632
▁പെരു	-9.34647
▁h	-9.34653
വൽ	-9.34658
റായി	-9.34675
എന്ന	-9.34711
▁പോയി	-9.34732
ഹോ	-9.3475
▁ആൻഡ്	-9.34764
ിപ്പിക്കുന്ന	-9.34772
▁കലണ്ടർ	-9.34774
▁ദൃശ്യ	-9.348
ോടെ	-9.34916
▁നാട	-9.34955
യാള	-9.34987
▁പ്രവിശ്യ	-9.35021
ഷാ	-9.35026
ed	-9.35048
ക്റ്റ	-9.35123
ത്തിനുശേഷം	-9.35152
മാണ	-9.35157
ഷണ	-9.35267
ക്കാലം	-9.35364
▁പദം	-9.35591
▁നഗരം	-9.35655
▁പുരാണ	-9.35664
പുത്ര	-9.35698
വിഭാഗ	-9.35722
▁അവാർഡ്	-9.35774
▁അറേബ്യ	-9.35788
▁ആഴ	-9.3579
▁പ്രവർത്തനങ്ങൾ	-9.35803
പ്റ്റ	-9.35847
▁ലഭിക്കുന്ന	-9.359
തിരി	-9.36047
▁പ്രാചീന	-9.36048
▁പരമ്പര	-9.3607
▁വശ	-9.36103
▁ഇന	-9.36217
െടുക്കുന്ന	-9.36254
ation	-9.36436
▁ടാ	-9.3658
▁എത്തിയ	-9.366
▁കാണാൻ	-9.36632
▁കൊല്ലം	-9.3665
ഗ്ന	-9.36687
▁അതായത്	-9.36697
▁വിദ്യ	-9.36754
▁അവരെ	-9.36813
▁ചുമതല	-9.36833
▁പ്രസിദ്ധമായ	-9.36897
വർക്ക്	-9.36907
▁പുറ	-9.36986
ിരിക്ക	-9.36987
ധന	-9.37038
ക്കർ	-9.37043
lo	-9.37188
▁പൂർണ്ണ	-9.37269
▁എന്നിവയും	-9.37284
▁ധർമ്മ	-9.37288
ഗു	-9.37301
▁ശുദ്ധ	-9.37316
പൊ	-9.37334
▁ഭരണാധികാരി	-9.37342
▁ഉപകരണ	-9.37349
▁തുല്യ	-9.37366
▁രചന	-9.37377
▁ദശ	-9.37473
▁എത്തി	-9.37483
യുദ്ധ	-9.37593
ുന്നതിനുള്ള	-9.37604
▁പ്രക്രിയ	-9.37612
▁ക്രമ	-9.37626
കൾക്കു	-9.37675
▁ജീവിച്ചിരുന്ന	-9.3769
ുവാനും	-9.3771
ക്കിയ	-9.37719
ിട്ടു	-9.37867
▁ചിറ	-9.37895
ദ്യ	-9.37922
ുകളാണ്	-9.37989
ാദ	-9.38076
▁ജനിച്ചത്	-9.38081
സംഘ	-9.3816
▁അർത്ഥം	-9.38176
സിയ	-9.38241
എഫ്	-9.38279
▁കൃതികൾ	-9.38374
▁ഗ്രിഗോറിയ	-9.38389
▁നൃത്ത	-9.38452
▁വെബ്	-9.38485
▁ഇന്ത്യാ	-9.38552
▁അനുഭവ	-9.38555
▁ചേർത്ത	-9.38602
▁രാജ്യങ്ങൾ	-9.38663
▁ജനറൽ	-9.38671
▁ആകെ	-9.38696
ക്രി	-9.38699
പ്പിച്ച	-9.38715
ുണ്ടാകുന്ന	-9.38717
ദീ	-9.38727
ണിയ	-9.38735
▁കമ്മ്യൂണിസ്റ്റ്	-9.3876
കൂ	-9.38806
▁ശ്രീകോവില	-9.39023
േശ	-9.39131
▁ഘട്ട	-9.39142
▁നീണ്ട	-9.39212
th	-9.39213
▁സ്വാധീനം	-9.39251
▁രാജ്യത്തെ	-9.39257
▁പൈ	-9.39292
▁കുഞ്ഞ	-9.39426
▁പട്ടാള	-9.39449
വയ	-9.39545
▁വിവാദ	-9.3961
പ്പന	-9.39617
▁അഭിനയ	-9.39685
▁കുറച്ചു	-9.3972
ti	-9.39784
▁വൈദ്യുത	-9.39792
പ്രവർത്തന	-9.39839
▁വിഭാഗം	-9.39856
ത്തിനെ	-9.39894
ോടൊപ്പം	-9.39963
▁ബംഗാളി	-9.39984
സിനെ	-9.4001
സ്ട്ര	-9.40047
ഭേദ	-9.40125
▁കറ	-9.40145
ുമെന്ന്	-9.40153
▁ചേർത്ത്	-9.40161
ദർശന	-9.40162
▁പങ്കു	-9.40162
▁മാധ്യമ	-9.40183
റ്റോ	-9.40187
വർഗ്ഗം	-9.40187
▁പുതു	-9.40274
30	-9.40285
▁ചെയ്ത്	-9.40289
▁സാധ്യത	-9.40508
▁ഗ്രീക്ക്	-9.40521
യെയും	-9.40603
▁ഇവിടത്തെ	-9.40618
ല്ലാതെ	-9.40623
▁അന്ന	-9.40636
▁പ്രദേശങ്ങളിൽ	-9.40652
സ്സ്	-9.40763
▁സർവ്വകലാശാല	-9.40789
▁വല	-9.4079
മില്ലാത്ത	-9.40803
▁ഭാരതീയ	-9.40837
കളുണ്ട്	-9.4091
▁അംഗീകരിക്ക	-9.40985
▁ദിന	-9.40993
▁എന്നായിരുന്നു	-9.41013
▁ഭാഷയിൽ	-9.4107
പാത	-9.41115
ിനോട്	-9.4114
ങ്ങളേയും	-9.41152
▁ഫ്രാൻസ	-9.41159
ഭാഗം	-9.41185
നാഥ	-9.41215
▁ഭാഗങ്ങൾ	-9.41315
▁കൂട്ടി	-9.41336
വിധ	-9.41363
▁കുറ	-9.41382
▁വിശേഷിപ്പിക്ക	-9.41408
ത്തിന്റേയും	-9.41452
ന്മാരും	-9.41492
▁2006	-9.41506
▁കത്ത	-9.41636
▁മുതലായ	-9.41755
മണ്ഡല	-9.41843
▁വിദ്യാലയ	-9.41885
കളുമായി	-9.41906
▁ഘടന	-9.41909
▁ഉയരം	-9.42043
ബോധ	-9.4212
മാറ്റ	-9.42141
രിക	-9.4215
=	-9.42159
▁കഥകളി	-9.42211
പരമായി	-9.42233
▁ഓർ	-9.42286
▁ആളുകൾ	-9.42331
ുകാർ	-9.4234
▁ജനാധിപത്യ	-9.42422
▁വിട്ടു	-9.42469
▁സെന്റ്	-9.42522
▁അറ	-9.4256
▁പുരസ്കാരം	-9.4265
▁മുൻപ	-9.42655
▁=	-9.42685
▁യഥാർത്ഥ	-9.42698
കളി	-9.42805
▁സമ്മാന	-9.42819
ബല	-9.42829
▁വെടി	-9.42934
▁ഏതാനും	-9.42972
▁സമിതി	-9.42984
▁റോഡ	-9.4299
ടെ	-9.43006
▁കൽ	-9.43023
ജീവിത	-9.43098
▁നയ	-9.43107
▁അസ	-9.43107
▁ഫലമായി	-9.43136
▁കർഷക	-9.43343
▁അയ	-9.43351
el	-9.43402
▁സൃഷ്ടിക്ക	-9.43447
▁ഹൃദയ	-9.43492
ക്കുക	-9.43537
ജല	-9.43655
▁പാകിസ്താന	-9.43803
▁മത്സ്യ	-9.43804
▁k	-9.43897
▁എന്നിവയുടെ	-9.43977
▁താലൂക്ക	-9.43981
േഴ്സ്	-9.44067
▁മുംബൈ	-9.44082
ഞ്ച്	-9.44168
▁വേര	-9.44187
▁ഒരാള	-9.44196
▁അഞ്ച്	-9.4424
പ്പെട്ടിട്ടുണ്ട്	-9.44251
▁വീട്ട	-9.44306
َ	-9.44361
▁ഇവയെ	-9.44403
തന്ത്ര	-9.44474
രേ	-9.44488
രിൽ	-9.44501
വിവക്ഷ	-9.44511
▁പിന്നീട	-9.44541
▁തുടങ്ങ	-9.44558
ma	-9.44574
▁കേസ	-9.44603
▁ആത്മഹത്യ	-9.44641
▁അന്തരിച്ചു	-9.44673
▁കണ്ടെത്തി	-9.44686
▁സ്വർണ്ണ	-9.44704
▁ഐതിഹ്യ	-9.44727
േന്ദ്ര	-9.44728
▁കഴിഞ്ഞു	-9.44754
ിച്ചിരുന്ന	-9.44768
▁അസ്	-9.44794
▁മണ്ഡല	-9.44907
▁പ്രപഞ്ച	-9.44948
ാത്മക	-9.44995
▁ചെമ്പ	-9.45018
ർദ്ധ	-9.45039
▁100	-9.45061
▁എല്ലാം	-9.45074
▁ലേ	-9.45102
ഡെ	-9.45193
േറിയ	-9.45215
ത്തെക്കുറിച്ച്	-9.45215
▁പലപ്പോഴും	-9.45252
▁ഉൾപ്പെടുന്നു	-9.45265
തരം	-9.45278
▁കിട്ടിയ	-9.4551
")	-9.45534
പിള്ള	-9.45544
▁അടിസ്ഥാനമാക്കി	-9.45576
▁കാസ്ട്രോ	-9.45769
▁ആയുധ	-9.4577
പ്പൂ	-9.45782
▁ജില്ലയിൽ	-9.45816
രിച്ച	-9.45853
se	-9.45949
കൈ	-9.45992
ഘട്ട	-9.46017
▁നിയമം	-9.46041
െണ്ണ	-9.46058
▁വിധേയ	-9.4609
▁ഉൾ	-9.46119
▁അനന്ത	-9.46123
▁പതിവ	-9.46125
▁നടന്നു	-9.46194
▁രാജ്യങ്ങളിൽ	-9.46306
▁പോഷക	-9.46339
ക്കുന്നത്	-9.46468
േരി	-9.46537
ിയിൽ	-9.46539
ദാന	-9.46566
16	-9.46616
▁പരാമർശ	-9.46657
▁പോകുന്ന	-9.46661
▁പണി	-9.46708
▁നൈ	-9.46727
▁ഐതിഹ്യം	-9.46748
▁കൊടുക്ക	-9.46829
▁ഉൽ	-9.46847
▁ശാസ്ത്രജ്ഞ	-9.46873
▁സേവന	-9.46983
▁നിയമസഭ	-9.46998
ശേഖര	-9.47023
ങ്ങളുടേയും	-9.47079
▁കാവ്യ	-9.47093
▁അവതരിപ്പിച്ച	-9.47139
▁സ്വാമി	-9.47148
മെന്റ്	-9.47183
ട്ടോ	-9.47196
▁സൂര്യ	-9.47225
▁ലക്ഷ്യ	-9.47257
▁വെള്ളം	-9.47257
▁താള	-9.47258
പ്പെടുന്നത്	-9.47323
കുല	-9.47344
▁സ്വഭാവ	-9.47372
▁ശതമാനം	-9.4739
▁സംവിധാന	-9.47419
▁നേട	-9.47459
▁ഓസ്ട്രേലിയ	-9.47486
▁ചുരുക്ക	-9.47496
▁കയ്യ	-9.475
▁2011	-9.475
െടുത്തു	-9.47519
▁ഐക്യ	-9.4754
േത	-9.47573
മയ	-9.47614
▁ഉരു	-9.4766
▁സർവകലാശാല	-9.47754
▁നടക്ക	-9.47761
▁കോൺ	-9.47762
ഡിയ	-9.47822
തുപോലെ	-9.47826
വർഗ്ഗ	-9.47846
▁അവിട	-9.48055
▁വിമർശന	-9.4806
തെന്നും	-9.48153
▁ചോള	-9.48153
ക്കൂട്ട	-9.48172
കുന്ന	-9.48207
▁രാജാവ	-9.48227
▁തടി	-9.48369
മാണെന്ന്	-9.48378
സിലെ	-9.48383
രാഷ്ട്ര	-9.4839
യില്ല	-9.48394
റ്റർ	-9.48406
െടു	-9.48407
▁തൂ	-9.48555
▁പട്ടിക	-9.48597
▁സാമൂതിരി	-9.48647
▁അർത്ഥ	-9.48697
▁ചെന്ന	-9.48713
▁ജനനം	-9.48768
▁സെക്രട്ടറി	-9.48828
▁എഴുത്തുകാര	-9.48837
▁വീതി	-9.48863
▁ഉൾപ്പെടുന്ന	-9.48887
▁വടക്കൻ	-9.48897
▁ആയിരുന്ന	-9.48938
▁എന്നിവിടങ്ങളിൽ	-9.48962
നദി	-9.48994
▁ചേർക്ക	-9.49027
▁സങ്കല്പ	-9.49043
ാവ്	-9.49254
▁കുറിച്ച്	-9.4926
▁ജീവിതരേഖ	-9.49263
ക്കട	-9.49281
▁ശ്രീരാമ	-9.49291
▁കാൽ	-9.49292
▁വൃക്ഷ	-9.49333
▁ഓണ	-9.49364
ഡാ	-9.49403
▁ജലം	-9.49442
ബാധ	-9.49475
▁വർഷത്തിലെ	-9.49483
▁സംയുക്ത	-9.49545
▁കരു	-9.49575
കൂട	-9.49587
ങ്ങളോട	-9.49649
പ്രതി	-9.49689
▁29	-9.49706
വശ	-9.49791
▁ഡെൽഹി	-9.49822
▁മാറിയ	-9.49829
▁കലാപ	-9.49905
സ്ഥല	-9.4997
▁സഭയുടെ	-9.50072
▁പ്ലാ	-9.501
പ്പാട	-9.50105
ദ്ദ	-9.50106
ാവശ്യ	-9.50114
▁ഒടുവിൽ	-9.50118
▁മുസ്ലിം	-9.5012
ിയിട്ടുണ്ട്	-9.50121
▁പൂര	-9.50131
▁ഉള്ളത്	-9.50136
▁മന്ത്രിസഭ	-9.50138
▁ദ്	-9.50148
ിലേക്കു	-9.50207
▁അവസാനം	-9.50242
▁വളരുന്ന	-9.50287
േയ	-9.50303
▁ഗുണ	-9.50368
as	-9.50407
കിട	-9.5044
മെന്റ	-9.50462
▁ഫോർ	-9.50514
പോക	-9.50563
▁അവയിൽ	-9.50586
▁കഴിയും	-9.50633
▁വിഷ്ണു	-9.50673
▁പടിഞ്ഞാറ്	-9.50693
▁ഹൈന്ദവ	-9.50713
▁പകുതി	-9.50713
▁പ്രഖ്യാപിച്ചു	-9.50801
▁കേരളത്തിന്റെ	-9.50818
▁നോ	-9.50891
ീർ	-9.50984
▁ലിപി	-9.50996
റുടെ	-9.51008
▁ശ്രീലങ്ക	-9.51011
കൃഷ്ണ	-9.5106
▁പ്രവർത്തക	-9.51072
▁അമ	-9.51079
▁രേഖപ്പെടുത്തിയ	-9.51087
▁തെറ്റ	-9.51091
ന്ധ	-9.51111
ചരിത്ര	-9.51124
.5	-9.51184
പ്പുറം	-9.51255
▁ദിനമാണ്	-9.51265
▁തുറമുഖ	-9.51301
▁ശി	-9.5137
▁ഗോത്ര	-9.51381
▁നേർ	-9.51454
ne	-9.51464
വിശ്വാസ	-9.51486
ad	-9.51521
▁നിയന്ത്രിക്ക	-9.5161
▁ദില്ലി	-9.51631
▁ചര	-9.51657
▁ദു	-9.51661
▁കാമ	-9.51664
▁ആദി	-9.51674
▁ത്രി	-9.51714
▁തിരുവ	-9.51783
▁കാട്ട	-9.51905
▁ജർമ്മനി	-9.51912
ുളള	-9.51921
▁ടൈ	-9.51925
വരുന്ന	-9.51932
കളെയും	-9.52004
▁കോട്ടയം	-9.52006
കളുടെയും	-9.52027
ായിരിക്കും	-9.52091
▁പരമ്പരാഗത	-9.52214
▁തെക്കൻ	-9.52225
ൈൻ	-9.52232
▁തെയ്യ	-9.52248
▁ലക്ഷം	-9.5225
ന്മാരെ	-9.52285
▁കഴിയുന്ന	-9.52384
ലക്ഷ	-9.52401
it	-9.52443
ള്ളി	-9.5246
ീഷ	-9.52531
▁ഇസ്ലാമിക	-9.52576
ഫോ	-9.52651
▁അനുസരിച്ച്	-9.52693
▁പ്രവർത്തനം	-9.52695
▁തൊഴിലാളി	-9.52695
▁വച്ച	-9.52713
▁വിട	-9.52723
▁വിശ്വ	-9.52803
▁ക്രൈസ്തവ	-9.52929
▁ചികിത്സ	-9.52931
ട്ടർ	-9.52944
▁പ്രദേശങ്ങൾ	-9.52949
▁സജീവ	-9.52968
വൃത്ത	-9.53044
▁ആൺ	-9.53046
▁വന്നത്	-9.5308
സും	-9.53118
▁w	-9.53126
▁തർക്ക	-9.53137
▁പേരിനു	-9.53192
▁സ്ഥാപിച്ചു	-9.53256
വച്ച	-9.53311
▁മാത്ര	-9.53388
▁പാട്ട	-9.53405
▁ചരിത്രസംഭവങ്ങൾ	-9.53431
▁ഉദ്യോഗസ്ഥ	-9.53437
▁ഫ്രഞ്ച്	-9.53443
റിയപ്പെടുന്നു	-9.5351
ഗ്രഹ	-9.53578
▁നാമം	-9.53594
വോ	-9.53682
ക്കേ	-9.53696
ാട്ട	-9.53716
▁സ്കൂള	-9.5377
▁2005	-9.53787
▁പ്രവർത്തിച്ചു	-9.53825
▁ലൈ	-9.53832
▁മാൻ	-9.53882
▁വേണ്ട	-9.53905
▁സ്ഥലത്ത്	-9.53946
കൊണ്ട	-9.53972
െപ്പോലെ	-9.53984
ങ്ങളിലാണ്	-9.54055
▁ഇപ്പോഴും	-9.5411
▁വാർത്ത	-9.54149
പ്പോഴ	-9.54152
▁തോന്ന	-9.54226
യ്ക്കുള്ള	-9.54269
ir	-9.54334
ോണി	-9.54404
രായി	-9.54404
ക്കള	-9.54433
▁തിരുവനന്തപുരത്ത	-9.54502
▁വിനോദ	-9.54537
▁വീര	-9.54547
▁ഏഴു	-9.54582
▁നു	-9.54685
ക്കൂ	-9.54788
ുവാനുള്ള	-9.54886
▁v	-9.54991
▁വയസ്സ	-9.55014
രുവ	-9.55015
▁സിസ്റ്റ	-9.55089
▁പ്രസിഡന്റ്	-9.55098
ക്കാരും	-9.55111
പഠന	-9.55147
വാർ	-9.55193
▁വെളുത്ത	-9.55287
ജനനം	-9.55356
േഷ്യ	-9.55387
▁വ്യാസ	-9.5554
▁സർവ്വ	-9.55541
▁വേഷ	-9.55557
▁ഭൂമിയിൽ	-9.55576
ശാഖ	-9.55636
▁ഉപദേശ	-9.5568
▁പിടി	-9.55764
ിട്ടും	-9.55832
▁ആഫ്രിക്ക	-9.55906
▁ബഹുമതി	-9.55918
ിയ്ക്കുന്ന	-9.55939
ായ്	-9.55947
il	-9.56013
ുന്നതു	-9.56044
▁കന	-9.56048
ക്കെ	-9.56079
▁ശിഷ്യ	-9.56116
▁ശ്രമ	-9.56136
▁വസ്ത്ര	-9.56223
വംശ	-9.56235
▁സേന	-9.56265
തുകൊണ്ട്	-9.56338
വെച്ച	-9.56424
ഗ്രാ	-9.56465
▁സംഘം	-9.56589
▁കടുത്ത	-9.56616
▁വരുത്ത	-9.5668
▁വലുത	-9.56746
മേറിയ	-9.56767
വർമ്മ	-9.56828
▁മധുര	-9.56835
▁സംസാരിക്കുന്ന	-9.56853
▁ബോധ	-9.56856
▁സ്റ്റാ	-9.56864
▁2009	-9.56875
▁തറ	-9.56889
▁എട്ടു	-9.56923
–	-9.5705
▁സിംഹ	-9.57062
ുമുള്ള	-9.57081
ിന്റേയും	-9.57137
▁തെങ്ങ	-9.5716
▁അണു	-9.57164
▁ഉപരിതല	-9.57177
▁തടയ	-9.57191
000	-9.57204
▁2010	-9.57205
▁കോളനി	-9.57232
ോണ	-9.57243
ഥി	-9.57261
▁പ്രസിദ്ധീകരണ	-9.573
മൂലം	-9.57343
തൃ	-9.57347
▁സംരക്ഷണ	-9.57433
ാടി	-9.57476
▁കാലഘട്ട	-9.57482
▁സോവിയറ്റ്	-9.57494
▁അപകട	-9.57514
ീര	-9.57576
▁പിടിച്ച	-9.57638
സ്കോ	-9.57645
▁പിണ്ഡ	-9.57646
കളേയും	-9.57711
▁നീള	-9.57727
▁പടിഞ്ഞാറൻ	-9.57735
▁[	-9.57785
▁എറണാകുളം	-9.57814
▁ഇന്ദിര	-9.57815
▁ആലപ്പുഴ	-9.57824
▁പല്ല	-9.57849
സമൂഹ	-9.58004
▁കായിക	-9.58024
▁നൂറ്റാണ്ടു	-9.5805
▁ചെയ്തിരുന്നു	-9.58057
▁റെയിൽ	-9.58064
▁നബി	-9.58096
▁ഭൗതിക	-9.58127
ോർ	-9.58172
▁ശ്രീകൃഷ്ണ	-9.58174
കാരൻ	-9.58175
ക്കാരനായ	-9.58187
▁പറ്റി	-9.58272
ശീല	-9.583
▁വെള്ളി	-9.58304
▁വ്യ	-9.58345
▁ഇദ്ദേഹത്തിന്റെ	-9.58363
▁2000	-9.5838
▁ഞാൻ	-9.58401
പഥ	-9.58422
ബ്ബ	-9.58466
ട്ര	-9.58507
രത്ന	-9.58576
വേഷ	-9.58612
െന്നു	-9.58613
▁വാതക	-9.58627
വർഗ	-9.5864
മാണു	-9.58666
▁ആഭ്യന്തര	-9.58779
▁പന്ത്രണ്ട	-9.58779
▁തൊഴിൽ	-9.5878
സേന	-9.58913
്യൂട്ട	-9.58955
▁ആഫ്രിക്കൻ	-9.58963
▁d	-9.59015
▁ചലന	-9.59027
തായ	-9.59066
▁വിനോദസഞ്ചാര	-9.59103
▁0	-9.5911
മാരും	-9.59115
പ്പെടുത്തി	-9.59123
▁പിൽക്കാലത്ത്	-9.59148
വ്യവസ്ഥ	-9.59148
▁ബാബ	-9.59173
▁പ്രായ	-9.59204
▁ഇംഗ്ലണ്ട	-9.5921
മുദ്ര	-9.59329
▁പതി	-9.59382
▁മിക്കവാറും	-9.59427
ങ്ങിയ	-9.59452
ബിൾ	-9.59477
▁ചക്ര	-9.59491
ണമെന്ന്	-9.59496
റൈ	-9.59546
▁പുഷ്പ	-9.59552
▁പതിപ്പ	-9.59607
▁നീളം	-9.59642
na	-9.59685
▁വോ	-9.5971
▁സാമൂഹ്യ	-9.59752
▁സന്ദർശിച്ച	-9.59753
വാദി	-9.59804
കൃതി	-9.59823
യെല്ലാം	-9.59874
▁റോമൻ	-9.59896
▁മരിച്ച	-9.59911
▁കാരണമായി	-9.59918
▁പെട്ടെന്ന	-9.59941
▁നിലനിർത്ത	-9.60003
▁തുടക്കത്തിൽ	-9.60018
പ്പൻ	-9.6002
▁ഒഴുകുന്ന	-9.60082
▁വേർ	-9.60113
pa	-9.60135
▁ദേവത	-9.60139
99	-9.60163
ിയിരുന്നു	-9.60226
നിന്ന്	-9.60244
14	-9.60251
▁സാമ്രാജ്യം	-9.60287
ഏ	-9.60302
ശാസ്ത്രം	-9.60348
യിലേക്കു	-9.60389
▁നായക	-9.60438
െത്തി	-9.60488
ശ്വ	-9.6054
മാകുന്ന	-9.6055
▁ത്ര	-9.60558
▁കഴു	-9.6057
ശാ	-9.60574
▁അന്ത	-9.6058
ങ്ങളിലായി	-9.60587
ാത	-9.60614
▁വഹിച്ച	-9.60631
▁കിലോമീറ്ററ	-9.60738
വശത്ത	-9.60781
▁നൽകുന്നു	-9.60911
ലിൻ	-9.60947
▁അവസര	-9.61011
▁കിഴക്ക്	-9.61024
▁ചൊവ്വ	-9.61068
പത്ര	-9.6108
ിയായി	-9.611
▁പ്രൊ	-9.6118
▁ഉണ്ടാക്കുന്ന	-9.61195
▁മാസം	-9.61198
കേരള	-9.61212
▁കീ	-9.6122
▁നാല	-9.61302
▁വൈദ്യുതി	-9.61311
കളില	-9.61322
▁പീ	-9.61339
പ്പെട്ടിരുന്നു	-9.61346
▁ജ്ഞാന	-9.61387
ികളും	-9.61482
▁പ്രാഥമിക	-9.6173
▁ജോസഫ്	-9.6173
ാവകാശ	-9.61757
un	-9.61771
▁വാഹന	-9.61799
▁വൈദ്യ	-9.61819
▁പുരുഷ	-9.61836
▁ഭൂമിയുടെ	-9.61885
▁റഷ്യ	-9.61976
▁അകലെ	-9.62034
▁സാഹചര്യ	-9.62063
▁പ്രതീക	-9.62063
▁ജിദ്ദ	-9.62086
▁ഏതെങ്കിലു	-9.62105
▁തരംഗ	-9.62117
▁കമ്പ്യൂട്ടറ	-9.62125
ബെ	-9.62132
▁കോർ	-9.62149
ജ്ജ	-9.62149
▁ഷെ	-9.62194
മാർഗ്ഗ	-9.62234
ുതന്നെ	-9.62236
ഗർ	-9.62256
ലർ	-9.62258
▁രാജവംശ	-9.62259
▁ശങ്കര	-9.62261
▁വലിപ്പ	-9.62271
▁ശതക	-9.62469
▁പൊട്ട	-9.6248
പ്പിൽ	-9.62535
▁പത്തു	-9.62569
▁ദീർഘ	-9.62586
സ്റ്റോ	-9.6262
▁പാദ	-9.62704
▁കോളേജിൽ	-9.6274
ിയെ	-9.62786
മനുസരിച്ച്	-9.62835
നീയ	-9.62852
12	-9.62995
▁അദ്ധ്യാപക	-9.63051
▁മാർപ്പാപ്പ	-9.6307
കൂട്ട	-9.63078
▁മുറി	-9.63084
▁ഭക്ഷണം	-9.63107
▁ആൾ	-9.63115
റ്റിൽ	-9.63122
▁മാവോ	-9.6314
ിതമായ	-9.63182
▁നിലനിൽക്കുന്ന	-9.63199
▁ഘ	-9.63256
di	-9.63259
▁ചെയ്യും	-9.63293
ികളെ	-9.63298
ഖാ	-9.633
തന	-9.63308
▁മലയാളത്തിലെ	-9.63313
ഗ്രീ	-9.63548
െയും	-9.63571
tt	-9.6368
▁പണിത	-9.63694
ാറില്ല	-9.63767
▁കീഴില	-9.63794
▁അധികാരം	-9.63828
▁മഹാഭാരത	-9.63836
25	-9.63912
സ്ക	-9.64148
▁വിഗ്രഹ	-9.64152
യാക്കി	-9.64157
▁കണക്കാക്കപ്പെട	-9.64166
▁കിടക്കുന്ന	-9.64176
ൃത	-9.64215
▁ആര്യ	-9.64301
ക്തി	-9.64305
പ്ല	-9.6431
▁കുല	-9.64367
▁കിട്ട	-9.64389
ദു	-9.64399
ൻഡ്	-9.64462
▁കുതിര	-9.64484
65	-9.64524
വൃത്തി	-9.64536
▁വിധി	-9.6463
ാംശ	-9.64695
ങ്ങളുള്ള	-9.64766
40	-9.64843
▁ചിലർ	-9.64852
ട്രി	-9.64864
▁സംഖ്യ	-9.64874
ട്ടാ	-9.64902
▁ബഹു	-9.65011
ീൻ	-9.6505
സമയ	-9.65067
▁പരിപാടി	-9.65075
▁വിശേഷ	-9.65085
▁സ്മാരക	-9.65115
▁സൂപ്പർ	-9.65121
ർത്ഥ	-9.65172
▁കാണുന്നു	-9.65207
ുണ്ടെങ്കിലും	-9.65225
▁അദ്ധ്യായ	-9.65231
▁വള	-9.65269
▁നിയന്ത്രണ	-9.65273
▁പെൺ	-9.65283
▁മുതലായവ	-9.65302
നാട	-9.65332
▁നേതൃത്വം	-9.65365
ാനാ	-9.65365
മാരെ	-9.65386
▁സൗര	-9.65391
ോത്സവ	-9.65459
▁ബെർ	-9.65463
▁തുർക്കി	-9.65471
▁നിർമ്മാണം	-9.65472
▁മലപ്പുറം	-9.65487
▁റെയിൽവേ	-9.65492
▁ചിലപ്പോൾ	-9.65588
ിപ്പിച്ചു	-9.65595
▁കർ	-9.65624
▁ഭാഗങ്ങളിൽ	-9.65736
ൂണ	-9.65761
താര	-9.65762
യാണ	-9.65768
▁ഒട്ടേറെ	-9.65807
▁മാർഗ്ഗ	-9.65814
▁സംഭവിച്ച	-9.65833
▁കണക്ക	-9.6589
ഗി	-9.65912
ഘടന	-9.66004
ശ്യ	-9.66022
▁വരും	-9.66023
▁ഉണ്ടാകുന്ന	-9.66025
രുത	-9.66031
ശു	-9.66043
ഭ്യ	-9.66046
▁താപ	-9.66084
▁(18	-9.6612
▁ശാ	-9.66123
▁ശക്ത	-9.66139
▁സമാധാന	-9.66154
ന്തു	-9.66261
ായും	-9.66297
▁31	-9.66298
തയും	-9.6634
ക്കാനുള്ള	-9.66435
▁ഊർജ്ജ	-9.66457
പാല	-9.66491
▁അഗ്നി	-9.66504
▁തന്ത്ര	-9.66531
▁ആഹാര	-9.66592
▁പാക	-9.66633
▁വിതരണം	-9.66718
j	-9.66726
ാനന്ദ	-9.66727
▁ലോകത്തെ	-9.66792
ഗാന	-9.66805
▁പോലെയുള്ള	-9.66812
മാക്കിയ	-9.66901
▁അംഗീകരിച്ച	-9.66968
രാണ്	-9.66995
▁മേഖലയിൽ	-9.67014
▁അമേരിക്കയിലെ	-9.67041
de	-9.67043
ർണ്ണ	-9.6706
▁ദ്രാവിഡ	-9.67063
▁പിടിച്ചു	-9.67114
ഞ്ഞി	-9.67118
▁അത്ര	-9.67139
▁താരതമ്യേന	-9.67201
▁പ്രസംഗ	-9.67202
▁നെല്ല	-9.67218
ിനുള്ള	-9.67232
▁ഓർമ്മ	-9.67299
തായും	-9.6735
▁അമ്പ	-9.67357
▁പക്ഷെ	-9.67371
▁g	-9.67382
▁മുത്ത	-9.67429
ന്മ	-9.6744
ാതിരുന്ന	-9.6744
▁ഇവിടുത്തെ	-9.67554
▁ഗി	-9.67598
▁അതിന്	-9.67617
കാരി	-9.67629
ക്കൊണ്ട്	-9.67687
രൂ	-9.67728
▁ഗവ	-9.67734
▁ഓഫീസ	-9.67735
നിയമ	-9.67741
ാണു്	-9.67772
▁നടത്തുന്നത്	-9.67799
▁അതുകൊണ്ട്	-9.67837
ടിയ	-9.67883
നാമ	-9.68102
▁ഈജിപ്ത	-9.68262
ുൾ	-9.68297
സ്റ്റർ	-9.68304
▁ജാവ	-9.68316
▁എന്നൊരു	-9.68347
കുറ	-9.68364
പ്പുറത്ത	-9.68372
▁പരീക്ഷ	-9.68402
▁രാമൻ	-9.68425
ter	-9.68438
ഭൂ	-9.68474
ത്തിലേക്കു	-9.68495
രചന	-9.68501
ൂരിൽ	-9.68518
റ്റെ	-9.68572
▁അല്ല	-9.68584
▁താമസ	-9.68606
▁എളുപ്പ	-9.68617
▁ഒഴി	-9.68618
▁സ്നേഹ	-9.68623
ാണുള്ളത്	-9.68637
ത്രേ	-9.68677
▁പ്രസിദ്ധീകരിക്ക	-9.68685
▁പുസ്തകം	-9.68706
▁40	-9.68735
ചാ	-9.68779
ജീവിതം	-9.68791
ഗതി	-9.68838
▁തുടര	-9.68884
▁റൂ	-9.68921
▁പങ്കാളി	-9.68957
▁പൂർണ്ണമായ	-9.68995
കളിലൂടെ	-9.68995
▁പാർട്ടിയുടെ	-9.69006
ിട്ട്	-9.69052
▁വേഗത	-9.69054
ക്കാലത്ത്	-9.69059
വാഹ	-9.69125
▁നാള	-9.69147
80	-9.69193
▁ആല	-9.69217
▁സ്ക	-9.69282
▁മലയാളത്തിൽ	-9.69283
▁മന്ത്ര	-9.6932
▁തെരഞ്ഞെടുക്ക	-9.69332
▁എന്നിരുന്നാലും	-9.69333
▁കൂടിയാണ്	-9.69334
▁ഇറ്റലി	-9.69336
▁മൊത്തം	-9.69338
▁ആകാശ	-9.69341
▁കുടുംബം	-9.69344
▁നിർമിച്ച	-9.69349
▁ലക്ഷ	-9.69376
▁കുട്ടികൾ	-9.69429
▁നിത്യ	-9.6946
90	-9.69485
ിരിക്കും	-9.69489
▁കത്തോലിക്കാ	-9.69533
ഷന	-9.69538
രാധ	-9.69569
പ്പർ	-9.6957
ന്റി	-9.69578
ർത്തി	-9.69613
ാങ്ക	-9.6976
▁ഉദാ	-9.69875
▁ഗുഹ	-9.69934
▁ദർശന	-9.6999
▁വീട	-9.69994
▁പ്രയോഗ	-9.70001
▁രേഖപ്പെടുത്ത	-9.70037
▁പശ്ചിമ	-9.70045
▁ഇന്നു	-9.70047
പൂ	-9.70051
▁പ്രസിഡന്റ	-9.70085
▁ചാര	-9.70117
ാചാര്യ	-9.70144
രോധ	-9.70161
▁ആരംഭ	-9.70211
▁ജനത	-9.70218
▁നിർബന്ധ	-9.7022
▁അതിന	-9.70266
ജീവി	-9.70287
▁പാമ്പ	-9.70304
▁വിളിച്ചു	-9.70347
▁ശില്പ	-9.70368
മൊഴി	-9.70387
▁തുടങ്ങിയത്	-9.7043
▁നഷ്ട	-9.70485
▁വ്യാഴ	-9.70496
▁ഇന്ദ്ര	-9.70499
സ്ഥാനം	-9.70522
മുണ്ടായിരുന്നു	-9.70613
▁കിഴക്കോട്ട	-9.70659
▁വീണ	-9.70683
▁കപ്പ	-9.70737
▁കീഴ്	-9.70771
▁മുഗൾ	-9.70779
▁പ്രഥമ	-9.70783
▁ഹു	-9.70803
um	-9.70817
▁മുന്നിൽ	-9.70938
▁60	-9.71105
▁ശിലാ	-9.71125
ل	-9.71144
▁അപേക്ഷിച്ച്	-9.71165
ങ	-9.71234
▁റോമ	-9.71244
േൽ	-9.71294
▁ഒന്നും	-9.71314
▁ഇദ്ദേഹ	-9.71364
▁ഒഴിവാക്ക	-9.71381
▁ഇടയിൽ	-9.71416
▁ലക്ഷണ	-9.71449
▁ഡയ	-9.71466
▁മുഖ്യമന്ത്രി	-9.71475
▁ബഹിരാകാശ	-9.7151
▁സ്ഥാപക	-9.71532
ദന	-9.71599
ിനേയും	-9.716
ക്കൊപ്പം	-9.7161
യറ്റ	-9.71636
ho	-9.71712
br	-9.71744
▁തായ്	-9.71792
▁കഴിക്ക	-9.71795
കൂടി	-9.71799
▁തീരുമാനിച്ചു	-9.71811
▁തൃ	-9.71824
▁ഓട	-9.71916
മൈ	-9.71932
ളർ	-9.72016
▁കാര്യങ്ങൾ	-9.7202
▁മാറ്റം	-9.72028
▁ബിരുദം	-9.72089
▁പ്രോ	-9.7209
▁സ്വീകരിച്ചു	-9.72095
▁മരുന്ന	-9.72097
▁ലൂ	-9.7211
▁വെയർ	-9.72116
▁മാസിക	-9.72195
▁മക്ക	-9.72254
▁ഒന്നു	-9.72305
▁വച്ചു	-9.72331
▁പങ്കെടുത്ത	-9.7237
▁ലക്ഷ്യം	-9.72374
വാന	-9.72511
ിപ്പിച്ച	-9.72544
▁കച്ചവട	-9.72618
ന്യ	-9.72623
ത്തെപ്പറ്റി	-9.72651
▁സ്ഥലങ്ങളിൽ	-9.72668
▁വകുപ്പ	-9.72695
തു്	-9.72717
ഒരു	-9.72731
▁വെച്ച	-9.72775
17	-9.72788
▁ശ്രമിച്ച	-9.72788
▁തലസ്ഥാനം	-9.72964
▁ചാലക്കുടി	-9.72989
▁ആറ്	-9.72996
ശേഷി	-9.73005
ക്വ	-9.73031
▁സിറ്റി	-9.73048
▁1.	-9.73049
▁വിശ്വസിക്കപ്പെട	-9.73061
▁തലസ്ഥാന	-9.7309
▁സാധിക്ക	-9.73148
▁t	-9.73149
▁ഗണിത	-9.73153
▁സഞ്ചാര	-9.73159
11	-9.73179
▁ആയിര	-9.73213
ുവെങ്കിലും	-9.73282
തിയ	-9.73341
▁നമ്പ	-9.73363
▁ഷോ	-9.73396
ul	-9.73419
▁സംഭാവനകൾ	-9.73536
-19	-9.73539
▁ആഗ്രഹ	-9.73554
പ്പാട്	-9.73642
▁കുഴ	-9.73678
▁2012	-9.73757
പ്രാ	-9.73778
▁ചെന്നൈ	-9.73805
▁പിന്നെ	-9.73828
ീകൃത	-9.73831
നഗര	-9.73877
▁ആകൃതി	-9.73974
▁ഒളി	-9.74007
വയ്ക്ക	-9.74112
▁യൂണിവേഴ്സിറ്റി	-9.74113
▁പ്രതിനിധി	-9.74123
മെന്നും	-9.74133
▁കുടിയേറ്റ	-9.7414
▁ചെയ്യുക	-9.74179
ക്കിടയില	-9.74188
▁മേഘ	-9.74223
ായാണ്	-9.74236
▁രാജി	-9.74372
▁സന്ദേശ	-9.74421
▁ഖാ	-9.74442
▁ഭാഗത്ത്	-9.74447
അധിവർഷത്തി	-9.74505
▁2013	-9.74507
ൻറെ	-9.7453
ോടും	-9.74593
▁മുള	-9.7462
▁വലിപ്പം	-9.7464
▁ആര	-9.74654
മിയ	-9.74656
നോട്	-9.74671
▁നൂറ്റാണ്ട	-9.74677
▁കായ	-9.74702
വിദ്യ	-9.74702
▁ചടങ്ങ	-9.74715
ുമായ	-9.74725
▁പുനർ	-9.7477
▁പക്ഷ	-9.74798
▁രാഷ്ട്രപതി	-9.74889
▁ഒരിക്കൽ	-9.74894
പ്പൊ	-9.74898
▁പ്രവാചക	-9.74899
▁വർക്ക	-9.74924
പേര	-9.74953
കെട്ട	-9.74996
ില്ലാത്ത	-9.75005
ഹു	-9.7503
ുപോയ	-9.75073
ീകരിച്ച	-9.7509
ശേഷ	-9.75111
▁അർദ്ധ	-9.75124
കുളം	-9.75175
▁മദീന	-9.75181
▁പ്രദേശത്തെ	-9.75186
യായും	-9.75208
െത്തിയ	-9.75249
▁ബുദ്ധിമുട്ട	-9.75252
▁ശത്രു	-9.75258
60	-9.75283
▁നടത്തുന്നു	-9.75302
ci	-9.75326
വിന്	-9.75371
▁എടുത്ത	-9.75371
▁കൊണ്ടുവന്ന	-9.75424
ോളജി	-9.75426
യാണിത്	-9.75448
▁അതിനുശേഷം	-9.75459
▁നിക്ഷേപ	-9.75524
▁ചെയ്യുകയും	-9.75553
▁ഉദ്	-9.7557
22	-9.75628
ശ്ച	-9.75655
മുതൽ	-9.75707
സംഗീത	-9.75713
റിയാ	-9.75733
ശ്രീ	-9.7575
ാധികാര	-9.75789
തെങ്കിലും	-9.75817
മംഗലം	-9.75827
ഖ്യ	-9.75828
▁സ്വാതന്ത്ര്യം	-9.75898
▁സൃഷ്ടി	-9.75959
▁രാജാവിന്റെ	-9.76011
▁ചതുരശ്ര	-9.76013
▁വൈദിക	-9.76015
▁കന്നഡ	-9.76016
ൂൺ	-9.76018
െയിൻ	-9.76045
യൊ	-9.76107
ാനോ	-9.76118
▁പാകിസ്താൻ	-9.7613
ph	-9.76139
▁എടുത്തു	-9.76146
▁ജേ	-9.76152
▁സൈന്യം	-9.76192
▁e	-9.76313
ചന്ദ്ര	-9.76341
▁ഉൾപ്പെട്ട	-9.76352
ഞ്ഞ്	-9.76373
▁വർദ്ധിപ്പിക്ക	-9.76399
▁ടീം	-9.76404
ലിംഗ	-9.76417
▁ആള	-9.76427
▁ഭക്ത	-9.76435
▁ഭാര	-9.76477
കളുടേയും	-9.76523
നവ	-9.76579
▁ഫ്ല	-9.76584
▁ചെറുപ്പ	-9.76589
▁സമ്പ്രദായ	-9.7662
da	-9.7668
ീവ്	-9.76713
പ്പെടുത്തിയ	-9.76721
▁ഭക്ഷ്യ	-9.76785
▁മൈസൂർ	-9.76785
▁പ്രവേശിക്ക	-9.76856
▁കൈകാര്യ	-9.76861
▁നാലാം	-9.76876
ർബ	-9.76909
▁പുറത്തേക്ക	-9.76936
ന്ദ്ര	-9.76966
ce	-9.77027
▁ഇതാണ്	-9.77096
ഡീ	-9.77097
വറ	-9.77165
▁ദക്ഷിണാഫ്രിക്ക	-9.77172
േക്ക്	-9.77182
▁പുറം	-9.77196
ബ്ദ	-9.77272
▁സഹായിക്ക	-9.77281
▁ഉയർന്നു	-9.77301
▁ഫ്രഞ്ചു	-9.77332
▁ബലി	-9.77346
▁in	-9.7737
ഹിത	-9.77415
▁ലീഗ്	-9.77453
▁സാധിക്കും	-9.77483
ടേ	-9.77495
പ്പേര	-9.77499
85	-9.77517
▁താരാപഥ	-9.77561
പുറ	-9.77568
0,000	-9.77571
▁റോഡ്	-9.77631
▁ക്രിസ്തുമത	-9.77662
▁ബാക്കി	-9.77675
ീകരണം	-9.7779
ിലായിരുന്നു	-9.77868
▁കളിക്കാര	-9.77908
▁ശേഷി	-9.77917
▁പ്രദേശത്ത്	-9.7795
▁സ്റ്റേറ്റ്	-9.77974
റിലെ	-9.78025
▁സഖ്യ	-9.78045
▁പരിധി	-9.78059
▁ശേഷ	-9.78076
▁അധി	-9.78105
▁കരുത	-9.78115
▁അത്തര	-9.78163
ജാതി	-9.78183
pe	-9.7824
▁തിരഞ്ഞെടുപ്പിൽ	-9.78308
▁ആണ	-9.78327
▁ഗ്ല	-9.78377
റ്റ്സ്	-9.78406
▁തെളിവ	-9.78421
തുമാണ്	-9.78464
▁മരിച്ചു	-9.78488
നാള	-9.78508
ൊന്ന	-9.78513
▁പ്രത്യേകതകൾ	-9.78532
വാൻ	-9.78556
▁വസ്തുക്കള	-9.78671
▁പൊടി	-9.78732
▁അനുകൂല	-9.78738
▁ഗർഭ	-9.78743
▁ഭരത	-9.78752
ol	-9.78773
നയ	-9.78796
▁വോട്ട	-9.78796
ദിന	-9.78871
▁പറ്റ	-9.78879
ാധി	-9.78884
സാര	-9.78889
▁പ്രത്യേകിച്ച്	-9.78924
▁നിലപാട	-9.7897
നാമം	-9.78979
▁സമ്പന്ന	-9.79016
▁കാര്യമായ	-9.79026
▁മറ്റ	-9.79039
▁ഉൾപ്പെടെ	-9.79048
മേൽ	-9.79056
▁അണക്കെട്ട	-9.7909
▁ഓർത്തഡോക്സ്	-9.79133
ത്തൂർ	-9.79156
▁അവതാര	-9.79206
▁മൂത്ത	-9.79239
ഉം	-9.79255
യാത്ര	-9.79355
നുസരിച്ച്	-9.79379
ണ്ണി	-9.79412
▁പഠിച്ച	-9.79412
ുന്നതാണ്	-9.79426
▁കെട്ടി	-9.7951
▁സംരക്ഷിക്ക	-9.79534
▁ഭഗവാൻ	-9.79535
കമായ	-9.7963
▁കാണപ്പെടുന്നത്	-9.7964
▁അടുത്തുള്ള	-9.79691
നിർ	-9.797
▁മഹാരാജാവ	-9.79713
ബൂ	-9.79764
▁അഭിനയിച്ച	-9.79768
▁രാമായണ	-9.79796
▁സമ്മത	-9.79805
വന്നു	-9.79861
ന്റെയും	-9.79881
▁ഗ്രൂപ്പ	-9.79895
▁അശോക	-9.79928
▁രോഗം	-9.80018
98	-9.8002
▁കോളേജ	-9.80057
പ്രസ്ഥാന	-9.80059
▁ദൂരം	-9.80073
▁കേരളീയ	-9.80076
▁നീങ്ങ	-9.80085
ഗിരി	-9.80132
തീര	-9.80167
▁പ്രശ്നങ്ങൾ	-9.80189
13	-9.80195
▁വർഷവും	-9.80197
▁തിരുവിതാംകൂറ	-9.80217
▁ഉണ്ടായി	-9.80256
ളവ	-9.80269
▁എക്സ്	-9.8027
com	-9.80297
▁വ്യാഖ്യാന	-9.8033
ia	-9.80339
ജൻ	-9.80448
നേതാക്കള	-9.80473
േഴ്സ	-9.80518
▁ചെലവ	-9.80536
യേറ്റ	-9.8065
66	-9.80663
ശ്രമ	-9.80673
ا	-9.8073
▁തോമസ്	-9.80736
ങ്ങളായിരുന്നു	-9.80739
യിരുന്ന	-9.80758
▁ജ്യോതിശാസ്ത്ര	-9.8079
ിലേക്കും	-9.80879
▁ലഭിച്ചത്	-9.80905
ുമായും	-9.80989
▁കുടുംബത്തിൽ	-9.80993
▁മൂന്നാ	-9.81003
ക്ഷണ	-9.81007
ോളി	-9.81011
മ്മാ	-9.81016
▁നിൽക്ക	-9.81035
▁ചെയ്യപ്പെട്ട	-9.8109
▁ബുദ്ധി	-9.81107
▁മുസ്ലീം	-9.81134
▁റോമാ	-9.81138
ർവ്വ	-9.81164
▁പ്ല	-9.81179
▁ഗോള	-9.81242
▁വിശ്വസിക്കുന്നു	-9.81316
ക്കളുടെ	-9.81351
▁മാറ്റങ്ങൾ	-9.81404
▁അതുപോലെ	-9.8144
യിലായിരുന്നു	-9.81449
▁°	-9.81507
▁ഇൻസ്റ്റിറ്റ്യൂ	-9.81538
▁കർണാടക	-9.81538
▁ആയുർവേദ	-9.81542
▁ഹിമാലയ	-9.81544
പിടി	-9.81569
▁കർണ്ണ	-9.81612
▁റീ	-9.81615
▁ചുമ	-9.81656
ട്ടെ	-9.81717
▁പാത്ര	-9.81745
ൻറ്	-9.81767
▁നടക്കുന്നത്	-9.81769
▁കരുതി	-9.81778
▁തുക	-9.81796
▁പിടിക്ക	-9.8183
po	-9.81916
▁കിരീട	-9.81945
▁മാനസിക	-9.81946
▁ആദിവാസി	-9.81969
വെള്ള	-9.81989
▁ലഭ്യമാണ്	-9.81997
▁("	-9.81998
▁ബാധിച്ച	-9.82006
▁തനിക്ക	-9.82032
▁ദ്രവ്യ	-9.82083
▁എന്നിവയ	-9.82097
▁പുരസ്കാര	-9.82125
ബിയ	-9.82127
ോടു	-9.82136
ച്ചേരി	-9.82167
▁ഉണ്ടാക്കിയ	-9.82177
▁മൗ	-9.82186
ത്തോടു	-9.82229
▁കിഴക്കേ	-9.8225
ങ്ങളിലേക്ക്	-9.82251
ഗമ	-9.82265
▁ഇംഗ്ലീഷ	-9.82308
രിഞ്ഞ	-9.8233
▁ഗ്രാമപഞ്ചായത്ത	-9.82353
▁വരുമാന	-9.82355
▁സൂക്ഷിക്ക	-9.8236
▁സ്റ്റേഷന	-9.82366
▁ma	-9.82374
▁ടെസ്റ്റ്	-9.8247
▁പങ്കെടുക്ക	-9.82487
64	-9.82534
▁മനസ്സിലാക്ക	-9.82538
▁കാര്യത്തിൽ	-9.82578
സ്ഥാപന	-9.826
തയുടെ	-9.82647
ങ്കര	-9.82652
▁വിരുദ്ധ	-9.82664
ക്കാരെ	-9.82672
▁പ്രത്യക്ഷ	-9.82674
▁സിസ്റ്റം	-9.8269
▁മീറ്ററ	-9.82719
▁പുര	-9.82748
▁യൂണിയൻ	-9.82763
▁ജൈവ	-9.82766
▁കഴിഞ്ഞാൽ	-9.828
▁കുറു	-9.82806
ര്	-9.82854
▁വിധ	-9.82862
തിരു	-9.82875
▁വിഭവ	-9.82912
▁ഉദ്ദേശ	-9.83007
▁എച്ച്	-9.83024
▁ജില്ലാ	-9.83133
▁പുനര	-9.83154
▁ജർമ്മൻ	-9.83175
▁പഠനങ്ങൾ	-9.83284
▁ആഗോള	-9.83308
▁കൊട്ടാര	-9.83369
47	-9.83407
▁സ്വാ	-9.83458
ജോ	-9.83462
ക്കാവ്	-9.8349
▁നോർ	-9.83493
▁ബസ്	-9.83519
ിങ്ങ	-9.83542
▁വായു	-9.83564
▁ബ്രിട്ടീഷുകാർ	-9.83587
▁ആറ	-9.836
ഗ്രാമ	-9.83616
▁നാശ	-9.83693
▁വിളിക്ക	-9.83728
▁നടത്തിയത്	-9.83739
+	-9.83746
▁അയാൾ	-9.8375
▁കൺ	-9.83787
▁ഔ	-9.83817
ർക്കും	-9.83836
▁നൂറ	-9.83861
▁വില്ല	-9.83876
▁മണ	-9.83892
▁ഗീത	-9.83902
രക്ഷ	-9.83966
▁പ്രക്ഷോഭ	-9.84018
▁അഷ്ട	-9.84029
▁കുറച്ച	-9.84048
▁ക്ഷേത്രത്തിന്റെ	-9.84056
ുവെന്ന്	-9.8414
‘	-9.84169
പ്രതിഷ്ഠ	-9.84182
▁നിഷ്	-9.84184
▁and	-9.842
▁എതിർപ്പ	-9.84214
▁ഉയർത്തി	-9.84251
ുന്നില്ല	-9.8426
▁കായ്	-9.84285
▁പുറത്ത്	-9.8432
▁കൊള്ള	-9.84325
▁പൗര	-9.84328
▁പഴക്ക	-9.84358
റൽ	-9.84398
ാന്തര	-9.84417
▁സംശയ	-9.84423
മുണ്ടായിരുന്ന	-9.84427
പീഠ	-9.84462
ാനാണ്	-9.84469
co	-9.84472
ഹീ	-9.84505
▁വ്യാപകമായി	-9.84581
▁പങ്ക്	-9.84663
ദോ	-9.84672
▁തൈ	-9.84678
▁കിഴക്കു	-9.84731
01	-9.8476
▁മകൻ	-9.84761
▁സീത	-9.84769
▁നടപ്പാക്ക	-9.8477
▁കാറ്റ	-9.84777
നാർ	-9.84809
▁കഥാ	-9.84828
പ്പോഴും	-9.84834
▁സൊസൈറ്റി	-9.84837
▁2014	-9.8486
പ്രവർത്തിക്കുന്ന	-9.84874
▁ശ്രദ്ധിക്ക	-9.84879
ാതിരിക്ക	-9.849
▁പൂവ	-9.84976
▁ഇല്ലാത്ത	-9.85004
പ്പിച്ചു	-9.85042
▁അടിമ	-9.85095
▁തത്ത്വ	-9.85131
▁ചിത്രത്തിൽ	-9.85155
▁ഉൾക്കൊള്ളുന്ന	-9.8516
▁പ്രത്യ	-9.85246
▁മദ്രാസ്	-9.85258
▁ഗുജറാത്തി	-9.85268
▁താഴ്	-9.853
ങ്കാ	-9.85328
▁അദ്ദേഹത്തിനു	-9.85343
ഷ്ണ	-9.85353
▁ഉദയ	-9.85414
▁പുണ്യ	-9.85476
▁ഉറ	-9.85624
▁പണ	-9.85626
▁പതാക	-9.85683
▁നേരെ	-9.8574
▁തീർത്ത	-9.85746
വർണ്ണ	-9.85754
ക്കുവേണ്ടി	-9.85763
▁സ്വര	-9.85792
ഞ്ചേരി	-9.85792
▁കൊള	-9.85811
േഷന	-9.8583
▁മലയാളി	-9.85893
▁ആത്മ	-9.85967
▁പുന	-9.85972
േജ്	-9.86
▁പ്രചാര	-9.86002
ബറ	-9.86056
95	-9.86091
▁പ്രഭു	-9.8611
▁കമ	-9.86123
▁മൂന്നാമത്തെ	-9.86124
▁മുന്നോട്ടു	-9.86133
മില്ലാതെ	-9.86139
▁സുവിശേഷ	-9.86142
ക്ഷേ	-9.86148
തൊ	-9.86181
മായിരിക്കും	-9.86194
48	-9.86234
ോട്ട്	-9.86255
ദിവസം	-9.86256
ളു	-9.86258
▁രണ്ടാമ	-9.8626
▁മതി	-9.86263
▁ആസ്ഥാന	-9.86301
▁നാട്ട	-9.86306
▁തമിഴ	-9.86309
▁നേരിട്ട	-9.86335
▁വാര	-9.86396
രസ	-9.86433
ഡർ	-9.86477
എച്ച്	-9.86528
▁ചുറ്റി	-9.86578
amp	-9.86606
▁മർദ്ദ	-9.86639
▁ഒന്ന്	-9.86676
▁എന്നിവരുടെ	-9.8669
▁ആന്റ്	-9.86811
വിൻ	-9.86819
യ്ക്കുന്ന	-9.86834
ab	-9.86839
-1	-9.86849
റൂ	-9.8687
▁എന്നിവയിൽ	-9.86916
ബീ	-9.86917
ാക്കൾ	-9.86947
▁ഉടമ്പടി	-9.86956
▁സത്യാഗ്രഹ	-9.86956
▁ഇടപെട	-9.86963
▁യന്ത്ര	-9.86971
▁പ്രൊഫ	-9.86979
▁നീക്കം	-9.8699
▁വളർന്ന	-9.87011
▁സൂചിപ്പിക്ക	-9.87017
▁അവാർഡ	-9.87036
മതി	-9.8708
▁പരിഭാഷ	-9.87086
ഫെ	-9.87143
▁രംഗത്ത്	-9.87239
▁ഇലകൾ	-9.87272
▁അളവ്	-9.87305
▁യുവ	-9.87311
▁പ്രോഗ്രാമ	-9.87325
പീ	-9.87326
▁നഷ്ടപ്പെട്ട	-9.87335
▁ലോകമഹായുദ്ധ	-9.87385
▁അസുഖ	-9.87386
▁കൃഷ്ണൻ	-9.87442
▁ഏഷ്യൻ	-9.87473
57	-9.87563
നിർമ്മാണ	-9.87565
▁ഈസ്റ്റ്	-9.87641
▁തോട്ട	-9.87681
▁കണ്ട്	-9.87689
ചര	-9.87697
▁ആസ്ഥാനം	-9.87748
▁കിഴക്ക	-9.87755
ത്രെ	-9.87758
▁മറുപടി	-9.87816
▁അല്പം	-9.87824
▁കാണുക	-9.87853
വച്ച്	-9.87855
▁ചൈനീസ്	-9.87857
▁തലശ്ശേരി	-9.87879
വിട്ട	-9.87882
▁ധരിച്ച	-9.87882
▁പിന്ന	-9.8789
sh	-9.87897
▁നദീ	-9.87922
vi	-9.87949
▁വീട്ടിൽ	-9.87996
മുണ്ടായ	-9.88003
യാൻ	-9.88007
86	-9.88017
▁തുടക്ക	-9.88102
▁കുറേ	-9.8811
ഭൂമി	-9.88145
▁വാദ്യ	-9.8817
കുമാര	-9.88216
▁ഗതാഗത	-9.88237
▁വർഷങ്ങൾ	-9.88265
▁റോയൽ	-9.88267
ുകളിലെ	-9.88287
ിയാണ്	-9.88398
വ്യാ	-9.884
ദേവി	-9.88419
ഞ	-9.88423
വേദന	-9.88434
▁സുഖ	-9.88466
മിട	-9.88473
ാണെങ്കിൽ	-9.88474
▁പറയാം	-9.88492
േണ്ടത	-9.88513
▁മുദ്ര	-9.88516
പുരാണ	-9.88533
ുമായിരുന്ന	-9.88554
ർദ്ദ	-9.88564
▁ചെങ്ക	-9.88587
▁ഒട്ട	-9.88609
▁ചൊല്ല	-9.88613
ചേര	-9.88656
▁ഗുരുവായൂർ	-9.88684
▁ദശലക്ഷം	-9.88684
▁എങ്ങനെ	-9.88685
▁സാമാന്യ	-9.88685
െഴുത	-9.88694
▁ദീപ	-9.88724
പ്പണി	-9.88729
88	-9.88785
▁നിറം	-9.88798
ക്കുറിച്ച	-9.88851
റീ	-9.88889
ിനെതിരെ	-9.88979
▁ഇളയ	-9.88986
▁ചീ	-9.89009
▁രസ	-9.89044
▁ലിം	-9.89045
കൃ	-9.8909
ങ്ങളാൽ	-9.89099
ുണ്ടായി	-9.89123
▁വർഗ	-9.89125
▁നശിപ്പിക്ക	-9.89125
▁തദ്ദേശീയ	-9.89156
▁കേട്ട	-9.8928
ിരിക്കണം	-9.89301
സാമ്രാജ്യ	-9.89353
കുട്ടി	-9.89383
യുമായ	-9.89403
ാർഥ	-9.89443
▁നെടു	-9.89455
▁പോളി	-9.89472
▁പത്ത	-9.89489
▁പലരും	-9.89497
▁ഉണ്ട	-9.89516
▁സംസ്	-9.89559
▁ഒൻപത	-9.8956
75	-9.89577
▁മലങ്കര	-9.89585
▁ദർശനം	-9.89592
ബേ	-9.89594
▁2003	-9.89604
ത്രി	-9.89629
കലാ	-9.89654
▁ചാനല	-9.89662
70	-9.89691
പ്പട	-9.89717
തട	-9.89731
▁മാർക്സ	-9.89753
ve	-9.8976
▁വിശേഷിപ്പിച്ച	-9.89776
ഫൈ	-9.8978
ക്കം	-9.8978
▁കുഴി	-9.89797
ദൈവ	-9.89803
▁ദുർ	-9.89834
ചാര	-9.89919
▁മാസത്തിൽ	-9.8993
ക്കൂട	-9.89939
▁വായിക്ക	-9.89939
▁പ്രാധാന്യ	-9.90001
▁അച്ഛൻ	-9.90005
ത്തിലായിരുന്നു	-9.90007
ലൂ	-9.90021
bo	-9.90033
ച്ചാൽ	-9.90049
▁വാക്ക	-9.90088
ണർ	-9.90135
▁തുടർന്ന	-9.90163
ഫ്ര	-9.9017
▁രൂപത്തിൽ	-9.9017
▁ഇണ	-9.90205
▁തുടർച്ചയായി	-9.90213
ചിന്ത	-9.90234
▁പരാ	-9.90277
സമ	-9.90328
മീറ്റർ	-9.90366
▁താമസം	-9.90412
▁സർക്കാരിന്റെ	-9.9042
▁ജീവന	-9.90435
ങ്കി	-9.90468
▁ശേഖരിച്ച	-9.90495
▁വികസിപ്പിച്ച	-9.90505
▁വിഭാഗത്തിൽ	-9.90506
▁പരിചയ	-9.90526
▁വിക്കറ്റ	-9.90555
▁അയൽ	-9.90588
▁റൺസ്	-9.90619
റ്റിക്	-9.90641
▁വീഴ	-9.90643
▁നാര	-9.9066
ഫാ	-9.90703
ടോ	-9.90708
ാകുന്നു	-9.9073
▁ഇന്ന	-9.90738
▁പ്രതിഫല	-9.9075
നുമായ	-9.9083
▁മൂല്യ	-9.90881
▁ഭൂരിഭാഗവും	-9.90887
?	-9.90887
▁സമാനമായ	-9.90932
▁തൊട്ടു	-9.91054
സിന്	-9.91063
▁മകനായി	-9.91075
നാശ	-9.91078
സങ്ക	-9.91087
യെങ്കിലും	-9.91113
▁ബ്രി	-9.91125
▁പമ്പ	-9.91149
സാധാരണ	-9.91192
ികളായ	-9.91212
▁കുറിച്ച	-9.91261
▁സാന്നിദ്ധ്യ	-9.91291
▁സേവ	-9.91291
▁ആശ്രയിച്ച	-9.91333
▁നോബൽ	-9.91333
▁രാവിലെ	-9.91334
▁പഠിപ്പിക്ക	-9.91334
ൾട്ട	-9.91339
▁ഡിഗ്രി	-9.91355
▁വിലയിരുത്ത	-9.91356
▁പന	-9.91358
വേഗ	-9.91408
▁കലർന്ന	-9.91428
▁ഭാഗമായ	-9.91441
യാണെന്ന്	-9.91471
ത്താൻ	-9.91512
കളുള്ള	-9.91556
കളിലാണ്	-9.91577
▁വിട്ട	-9.91628
▁സർവ	-9.91636
▁പദാർത്ഥ	-9.91697
▁നിലവിലുണ്ട്	-9.91735
▁കോൺഗ്രസ്സ്	-9.91777
ിലേക്കുള്ള	-9.9178
▁പാർലമെന്റ	-9.91782
▁എത്തിച്ചേര	-9.91784
▁തത്ത്വചിന്ത	-9.91787
▁ആറ്റ	-9.9181
▁തുട	-9.91918
ാക്കിയ	-9.91922
▁എടുക്ക	-9.91932
▁–	-9.9196
so	-9.91966
sa	-9.91978
വരിൽ	-9.91987
▁ഇനി	-9.92007
▁നീക്ക	-9.92028
▁കർമ്മ	-9.92057
▁പാർക്ക	-9.92074
ല്ലോ	-9.9213
▁സാര	-9.92171
▁പ്രാപിച്ച	-9.92265
ിരിയ്ക്ക	-9.92294
▁ലോകകപ്പ	-9.92383
▁ഉയരത്തിൽ	-9.92449
▁ജീ	-9.92453
▁ആരാധന	-9.92522
പരിവർത്തന	-9.92527
▁കുട്ട	-9.92556
ge	-9.92604
▁സംഗീതം	-9.92643
▁നഗരത്തിൽ	-9.92664
മാണി	-9.92664
▁കർണ്ണാടക	-9.92685
▁ഉപേക്ഷിച്ച	-9.92686
▁പരിണാമ	-9.92687
▁സിനിമാ	-9.92709
▁മകന	-9.92715
▁ഇരുപതാം	-9.92723
▁ടെക്	-9.92742
96	-9.92791
ക്കുളം	-9.92799
▁പാട്ടു	-9.92853
ധാരണ	-9.92881
▁നദിയുടെ	-9.92895
ഭാരത	-9.92931
▁പേർഷ്യൻ	-9.92984
▁നയിച്ച	-9.93072
▁സ്ഥാപിതമായ	-9.93139
▁കണ്ടുപിടിത്ത	-9.93139
▁കമ്മിറ്റി	-9.93139
▁1999	-9.93167
തിനുശേഷം	-9.93174
▁കൊണ്ടാണ്	-9.93176
▁വാൻ	-9.93217
38	-9.93229
▁പൊതുവെ	-9.93246
▁പാഠ	-9.93264
56	-9.93268
▁കുഞ്ഞു	-9.93281
▁പടിഞ്ഞാറു	-9.93285
ക്കാൾ	-9.93326
ക്കാരൻ	-9.93356
▁ഗ്രാ	-9.93404
▁മത്സരത്തിൽ	-9.93413
▁നാട്ടു	-9.93413
ജാത	-9.93425
ത്തിരി	-9.93436
▁അച്ചടി	-9.9344
നാടക	-9.93467
ോല	-9.93486
▁2004	-9.93491
ങ്ക്	-9.93539
▁രഹസ്യ	-9.93596
▁പ്രസ്തുത	-9.93596
ദിവസ	-9.936
▁കഴിവ	-9.93615
▁സാമ്യ	-9.93644
▁നൽകിയത്	-9.93708
77	-9.93782
▁വയനാട്	-9.93811
▁അടിസ്ഥാനത്തിൽ	-9.93839
▁സഭാ	-9.93846
▁കാട്ടു	-9.93856
▁സഹായത്തോടെ	-9.93861
▁ശ്രദ്ധേയമായ	-9.93864
ക്കടുത്ത	-9.93977
▁വള്ള	-9.93982
കർഷ	-9.93983
ni	-9.93996
ഹര	-9.9403
ട്രോ	-9.94052
▁സാന്നിധ്യ	-9.94054
▁ജനകീയ	-9.94055
▁ക്രമേണ	-9.94062
▁കോല	-9.94079
▁സമ്പദ്	-9.94094
▁എലി	-9.9412
▁സ്കൂളിൽ	-9.94139
ാകട്ടെ	-9.94201
ത്തുന്ന	-9.94209
▁അളവിൽ	-9.94237
മേള	-9.94262
mi	-9.94294
ിലേക്ക	-9.94312
ന്ത്ര	-9.94335
▁അവര	-9.94385
▁സൃഷ്ടിച്ച	-9.94474
▁ബൈ	-9.94477
▁അപ്പോൾ	-9.94496
▁അവയെ	-9.94498
▁ന്യായ	-9.94514
▁പ്രഖ്യാപിക്ക	-9.94515
▁കൊടുങ്ങല്ലൂർ	-9.94515
▁ഭീഷണി	-9.94515
▁സഞ്ചരിച്ച	-9.94515
▁അമ്ല	-9.94522
▁ജീവചരിത്ര	-9.94529
▁നിർമ്മിക്കുന്ന	-9.94558
▁വിളക്ക	-9.94582
തിനാലാണ്	-9.94644
▁ഉത്സവം	-9.94655
▁കുറിച്ചു	-9.94692
▁ആണു	-9.94696
ചന	-9.94697
▁കോൺഗ്രസ	-9.94697
▁ഓപ്പറേറ്റ	-9.94736
▁നോക്കി	-9.94741
▁വളര	-9.94742
▁നര	-9.9476
▁ലളിത	-9.94768
െഴുതിയ	-9.94776
▁ലീഗ	-9.94777
▁ജനങ്ങളുടെ	-9.94779
▁കുരു	-9.94825
▁താഴ്ന്ന	-9.9483
ടങ്ങിയ	-9.94857
▁ശിവക്ഷേത്ര	-9.94887
ക്കൻ	-9.94903
മഹാ	-9.94947
ാട്ട്	-9.94966
▁ചരിത്രകാരന്മാർ	-9.94978
ണ്ടാ	-9.95042
ത്തറ	-9.95048
▁വെച്ചു	-9.95078
▁ചുവന്ന	-9.95083
▁മാർഗ്ഗം	-9.95115
▁വിജയം	-9.95186
ാസന	-9.95226
▁എഫ്	-9.95236
▁വരുന്നത്	-9.95243
യോടു	-9.95255
ളിൽ	-9.9528
▁വായന	-9.95288
▁നൂ	-9.95313
▁രജ	-9.95373
▁നടപടി	-9.95381
ചക്ര	-9.95384
_	-9.95412
▁സന്ദർശിക്ക	-9.95443
▁ഹൈഡ്രജൻ	-9.95443
▁ഉത്പാദന	-9.95444
കുളങ്ങര	-9.95459
▁ഒരാൾ	-9.95469
▁ശരി	-9.9547
▁മുറ	-9.95599
▁സ്ത്രീകൾ	-9.95605
▁നേട്ട	-9.95614
▁അറ്റ്	-9.95636
▁പശ്ചാത്തല	-9.95729
▁കൂടുതലായി	-9.95783
▁റു	-9.95822
കളായിരുന്നു	-9.9587
▁ഭ്രമണ	-9.95907
▁പതിനൊന്ന	-9.95911
▁തിരുനാൾ	-9.95921
▁അമ്പല	-9.95938
▁ഇക്കാലത്ത്	-9.96027
നൻ	-9.96077
▁വേല	-9.96149
▁ലഭ്യമായ	-9.96155
▁l	-9.96185
▁പണിയ	-9.96263
ent	-9.96289
ക്കാരായ	-9.96329
▁അന്നു	-9.96343
ച്ചിൽ	-9.96347
യിരുന്നു	-9.96352
▁നവോത്ഥാന	-9.9638
▁പ്രതിഷേധ	-9.9638
കണ്ഠ	-9.96384
▁പോരാട്ട	-9.96386
ധാ	-9.96468
▁വകുപ്പ്	-9.96536
▁താഴ	-9.96544
▁വധിക്ക	-9.96558
▁സവിശേഷത	-9.96559
▁പൗരസ്ത്യ	-9.96564
▁സാധ	-9.96573
▁വ്യക്തമായ	-9.96608
ാചാര	-9.96611
▁തൊട്ട	-9.96612
▁വാത	-9.96617
കവി	-9.96627
▁al	-9.96657
▁മുന്ന	-9.96682
പ്പിൾ	-9.9671
▁തരത്തിലുള്ള	-9.96825
▁യഹൂദ	-9.96852
▁വിസ്തീർണ്ണ	-9.96856
▁ട്രാൻസ്	-9.96874
യല്ല	-9.96894
▁നഗരത്തിന്റെ	-9.96897
ുണ്ടാക്ക	-9.96903
വർത്തി	-9.96923
qu	-9.96924
കളിലൊന്ന	-9.96944
87	-9.9695
യെക്കുറിച്ച്	-9.97004
▁re	-9.97006
ഡിൽ	-9.97031
കൽ	-9.97046
▁അരങ്ങ	-9.97116
പ്പെട്ടിരുന്ന	-9.97119
ക്ടർ	-9.97128
▁ചിഹ്ന	-9.97165
ba	-9.97229
▁മക്കള	-9.97261
▁വ്യാവസായിക	-9.97326
▁ഒളിമ്പിക്	-9.97326
▁നാണയ	-9.97329
മുറ	-9.97343
▁വെളിച്ച	-9.97384
ദം	-9.97391
മാറി	-9.97394
▁സമാന	-9.97431
▁ക്രിയ	-9.97435
േണ്ടത്	-9.97482
വിടെ	-9.97491
വെന്ന	-9.97506
ാണെന്നും	-9.97513
▁ഉട	-9.97519
ധര	-9.97553
പൂർവ്വ	-9.97581
തം	-9.97617
▁വയ്ക്ക	-9.97743
▁നീണ്ടു	-9.97785
▁താല്പര്യ	-9.97802
▁ബംഗാൾ	-9.97802
sp	-9.97821
▁ഉത്തമ	-9.97825
id	-9.98084
തല്ല	-9.9815
ഹരി	-9.98169
▁മേഖലകളിൽ	-9.98175
▁നീര	-9.98195
▁നന്നായി	-9.98245
ാവുകയും	-9.98269
▁അന്വേഷണ	-9.9828
▁ബ്ലോഗ	-9.98297
▁ബോർഡ	-9.98299
46	-9.98304
▁അറിയപ്പെട്ടിര	-9.98315
▁വാക്യ	-9.98339
▁സമ്മേളന	-9.98346
സുകൾ	-9.98368
യ്ക്കൽ	-9.98388
▁ഗോപാല	-9.98438
▁നൂറ്റാണ്ടിലെ	-9.98496
▁വസ്തുവ	-9.985
ഗുരു	-9.98524
ദാസ	-9.98541
▁എട്ട്	-9.98572
നക്ഷത്ര	-9.98642
▁കിളി	-9.98647
പ്പാട്ട	-9.98683
▁70	-9.98742
▁പുരോഗതി	-9.98761
▁വാർഷിക	-9.98761
▁നിരന്തര	-9.98764
▁1996	-9.98783
▁1998	-9.98786
▁ദേവാലയ	-9.98801
ുമെന്ന	-9.98804
▁2002	-9.98807
▁തോറ്റ	-9.98834
ക്കുട്ടി	-9.98905
▁രാജാവായ	-9.98922
▁വരച്ച	-9.98925
▁ചരിത്രത്തിൽ	-9.98926
▁മലബാറ	-9.9893
82	-9.9894
▁നിലനിന്നിരുന്ന	-9.98997
കൂടാതെ	-9.99004
▁ദിശ	-9.99037
ഫർ	-9.99067
ത്തിനുള്ളിൽ	-9.99071
▁കുറവാണ്	-9.99077
വാല	-9.99079
▁അയ്യ	-9.9908
▁ഇവിട	-9.99092
യിലേ	-9.99094
ാട്ടു	-9.99189
▁കേന്ദ്രം	-9.99192
▁വിവർത്തനം	-9.99216
▁ആശാ	-9.99225
▁മണ്ടേല	-9.99244
▁സൂക്ഷ്മ	-9.99244
▁തൊഴില	-9.99245
▁തലസ്ഥാനമായ	-9.99282
രംഗത്ത്	-9.99336
▁ഉണ്ടായത്	-9.99416
▁അനുമാന	-9.99419
ബൈ	-9.99423
▁പൂർവ്വ	-9.99436
യോഗ്യ	-9.99439
▁ഭരിച്ചിരുന്ന	-9.99444
▁സൂര്യന്റെ	-9.99531
44	-9.99535
▁തൂക്ക	-9.99597
▁1,	-9.99599
ക്കളി	-9.99602
രൂപം	-9.9972
▁അനുവദിച്ച	-9.9973
▁ജലസേചന	-9.9973
▁ഫുട്ബോൾ	-9.9973
▁മണിക്കൂറ	-9.9973
▁ഇത്തരത്തിൽ	-9.9973
ുണ്ടാക്കുന്ന	-9.99751
ർഗ	-9.99763
രഹിത	-9.99773
41	-9.99784
▁ഒമ്പത	-9.9979
വച്ചു	-9.99831
കാരനായ	-9.99842
08	-9.99843
su	-9.99867
▁ഏതു	-9.99873
▁കുടി	-9.99877
▁ഭയ	-9.99893
▁(1	-9.99922
▁മലയ	-9.99922
▁പർവത	-9.99941
91	-9.99951
ങ്ങളോ	-9.99964
ച്ചാ	-10.0005
84	-10.0007
മേനോൻ	-10.0011
വ്വ	-10.0019
▁ഹീലിയ	-10.0022
▁പതിനഞ്ച	-10.0022
സമയത്ത്	-10.0024
▁ഈഴവ	-10.0025
രൻ	-10.0026
ുമെന്നും	-10.0026
▁ഗോപുര	-10.0029
▁തൃക്ക	-10.0029
വിഗ്രഹ	-10.003
ശീ	-10.0031
▁വെട്ടി	-10.0032
0-	-10.0032
▁സുപ്രധാന	-10.0033
et	-10.0034
▁ദിവ്യ	-10.0037
രായിരുന്നു	-10.0038
▁തെളിവുകൾ	-10.0039
ചെയ്	-10.0039
▁ഉയർത്ത	-10.0043
പറയ	-10.0044
▁കാമ്പ	-10.0046
▁നെഹ്രു	-10.0046
പ്പുര	-10.0046
con	-10.0048
▁ലഭിച്ചിട്ടുണ്ട്	-10.0055
▁ക്രിസ്തു	-10.0057
▁കുമാര	-10.0059
▁നേരിട്ട്	-10.0062
▁80	-10.0065
▁പൂർണ	-10.0069
▁സ്ഥാപനങ്ങൾ	-10.007
▁പിന്തുടർന്ന	-10.0071
ർപ്പണ	-10.0073
▁1947	-10.0073
▁1950	-10.0075
▁മനുഷ്യൻ	-10.0076
▁കോളജ	-10.0076
▁ബഹ	-10.0076
▁ധാതു	-10.0078
▁കാണുന്നത്	-10.0078
▁നീളമുള്ള	-10.0082
പ്രവർത്തക	-10.0086
▁ഇലക്ട്രോ	-10.0086
▁നക്ഷത്രങ്ങൾ	-10.0092
▁രേഖകൾ	-10.0097
ka	-10.0106
37	-10.011
55	-10.011
മ്പ്ര	-10.0111
പോയി	-10.0112
മാകുന്നു	-10.0113
▁ഉപയോഗം	-10.0114
▁മീന	-10.012
▁ഐക്യരാഷ്ട്രസഭ	-10.012
▁ദൂരദർശിനി	-10.012
▁മാപ്പിള	-10.012
▁വികസിച്ച	-10.012
▁വാദം	-10.012
▁1971	-10.0122
▁1991	-10.0122
▁അഗ്ര	-10.0123
▁മാധവ	-10.0124
05	-10.0125
▁രാശി	-10.0127
▁കലാരൂപ	-10.0128
ന്നൂർ	-10.0129
▁ദിവസങ്ങൾ	-10.013
തിനെത്തുടർന്ന്	-10.0131
കൊണ്ടുള്ള	-10.0135
▁പാപ	-10.0135
▁കൊച്ചു	-10.0136
ക്കിൾ	-10.0139
▁എത്ര	-10.014
▁വലതു	-10.0142
ക്കാർക്ക്	-10.0143
▁de	-10.0144
▁ഭീമ	-10.0151
യുന്ന	-10.0152
കാണ	-10.0157
▁കേരളം	-10.0158
▁തുടങ്ങുന്ന	-10.0159
ുണ്ടാക	-10.016
സംഖ്യ	-10.0163
ബുദ്ധ	-10.0164
▁ചുറ്റും	-10.0164
ഴിഞ്ഞ	-10.0167
സറ	-10.0169
ൊര	-10.0169
▁ഭർത്താവ	-10.017
▁ഇസ്ലാം	-10.017
▁അടിയന്തരാവസ്ഥ	-10.017
യെപ്പറ്റി	-10.0171
കൊടു	-10.0171
▁ക്ലാസ്	-10.0173
ഗത	-10.0175
വാദം	-10.018
▁കാരണമായ	-10.0181
▁കേന്ദ്രീകരിച്ച	-10.0182
ca	-10.0183
▁മടങ്ങ	-10.0186
▁ഗോൾ	-10.0187
▁നടന്നത്	-10.0193
▁മൂർ	-10.0194
▁35	-10.0198
▁ആരംഭിച്ചത്	-10.0202
▁കട്ടി	-10.0206
െന്നാണ്	-10.0206
▁ഓല	-10.0206
)-	-10.021
രൂപത്തിൽ	-10.021
യൂർ	-10.021
ലിസ	-10.0215
കുട	-10.0218
▁തിരുവാതിര	-10.0219
▁നിലവിലുള്ള	-10.0219
▁അനുമതി	-10.0222
▁നടത്തുകയും	-10.0226
ക്കൊണ്ട	-10.0231
▁വിധാന	-10.0233
▁ഗാന്ധിജി	-10.0234
സാധന	-10.0234
the	-10.0235
▁ദിനം	-10.0236
▁കാലയളവിൽ	-10.0241
▁ഭാഷകളിൽ	-10.0242
▁വനിത	-10.0249
92	-10.0255
▁ദിവസവും	-10.0256
ലീല	-10.0256
▁ഭരിച്ച	-10.0257
▁രണ്ടായി	-10.0259
ദായ	-10.0262
▁നാട്	-10.0264
ിക്കപ്പെടുന്ന	-10.0265
▁പണം	-10.0265
നൈ	-10.0266
▁എതിരാളി	-10.0269
▁വിഭജിച്ച	-10.0269
▁ക്രിസ്തീയ	-10.0269
▁കാനഡ	-10.027
▁1992	-10.0271
▁1948	-10.0272
▁സഹോദരി	-10.0273
89	-10.0275
▁ആത്മീയ	-10.0275
▁മുന്നേറ്റ	-10.0278
▁അനുബന്ധ	-10.0279
to	-10.028
ദേ	-10.0283
▁വസ്തുക്കൾ	-10.0284
പ്രകാര	-10.0287
ക്കല	-10.0287
24	-10.0292
▁നിർത്ത	-10.0293
തലത്തിൽ	-10.0298
▁പാളി	-10.0301
ാർഡ്	-10.0302
യമ്മ	-10.0313
▁നേതാവ	-10.0319
▁കൃത്രിമ	-10.032
▁സൗരയൂഥ	-10.032
▁തന്മാത്ര	-10.032
▁നെറ്റ്	-10.032
▁മലയാളചലച്ചിത്ര	-10.0321
▁ഉദ്ഭവ	-10.0321
▁പരിസ്ഥിതി	-10.0321
▁1962	-10.0321
കൊണ്ടിരിക്കുന്ന	-10.0322
▁തലമുറ	-10.0322
▁ലോകത്ത	-10.0323
▁മറ്റുള്ള	-10.0326
▁വിളിച്ച	-10.033
ന്ത്യ	-10.0333
▁കയറി	-10.0338
▁മാണി	-10.0338
ിനായി	-10.0341
▁തളി	-10.0344
▁കാക്ക	-10.0347
▁വേണം	-10.0347
ലേഖ	-10.0353
യാറ	-10.0355
ശില	-10.0357
▁ബിരുദ	-10.0361
▁അവസാനത്തെ	-10.0363
പ്രസിദ്ധ	-10.0363
▁കണ്ടുവരുന്ന	-10.0363
▁വ്യത്യസ്തമായി	-10.0363
▁നിരീക്ഷിക്ക	-10.037
▁നികുതി	-10.037
▁കമ്യൂണിസ്റ്റ്	-10.037
ുപയോഗിച്ച്	-10.0377
▁മേല	-10.038
ലായ	-10.0386
ഴുക	-10.0392
▁തട്ട	-10.0395
താള	-10.0398
യിട്ട	-10.0406
▁കോണ	-10.0407
മൊ	-10.041
▁നടപ്പിലാക്ക	-10.0414
മാസം	-10.0417
▁ബാങ്ക	-10.0418
ല്ലൂർ	-10.042
ru	-10.0425
▁സ്വാധീനിച്ച	-10.0425
നിലെ	-10.0427
▁ഇവരെ	-10.0435
വിശേഷ	-10.0438
▁സർപ്പ	-10.0439
▁നിയമങ്ങൾ	-10.0439
▁കൊമ്പ	-10.0439
ിതനായ	-10.0439
▁മനോ	-10.0439
▁i	-10.0442
▁കൊട്ട	-10.0443
▁മഠ	-10.0444
▁സൗ	-10.0445
▁സഹായിക്കുന്നു	-10.0447
▁മോഡ	-10.0447
▁കീഴടക്കി	-10.0451
സൗ	-10.0452
▁കോൺഗ്രസ്സ	-10.0454
▁പ്രമാണ	-10.0458
▁കാണിച്ച	-10.0459
ഛ	-10.046
▁ലിഖിത	-10.0461
▁അന്യ	-10.0464
▁എന്നതായിരുന്നു	-10.0465
യിലെത്തി	-10.0466
▁പരാജയ	-10.047
▁അവലംബം	-10.0472
▁ദൗത്യ	-10.0472
▁നമസ്കാര	-10.0472
▁സൂചന	-10.0473
▁ഗംഗ	-10.0473
▁തെളിയിക്ക	-10.0474
hi	-10.0474
▁മതം	-10.0479
▁ശരിയായ	-10.0479
ec	-10.0481
▁പ്രദർശന	-10.0484
▁സഹകരണ	-10.0485
200	-10.0485
സൻ	-10.0485
രുത്	-10.0492
▁കഴിഞ്ഞ്	-10.0492
▁തോട	-10.0493
▁കപ്പൽ	-10.0494
▁ഒഴുകി	-10.0495
▁ഇതര	-10.0496
കളിലായി	-10.0497
മറ	-10.0499
▁വരി	-10.0504
▁റൺസ	-10.0505
▁പോൾ	-10.0509
വേദി	-10.051
▁ലഘു	-10.0513
താണെന്ന്	-10.0518
▁കളിച്ച	-10.0519
ന്മാരായ	-10.0522
തെന്നു	-10.0522
▁മുതിർന്ന	-10.0523
▁യാതൊരു	-10.0523
▁ഡൽഹി	-10.0523
▁പങ്ക	-10.0523
സമാഹാര	-10.0526
▁ദൈവം	-10.0526
▁ഭാഗമാണ്	-10.0527
പത്തി	-10.0533
▁ഓവ	-10.0537
▁ഗുണങ്ങൾ	-10.0538
▁വൻകര	-10.0541
കാലത്തെ	-10.0541
കുമാർ	-10.0543
മംഗല	-10.0549
▁n	-10.0554
വയും	-10.0554
▁അമേരിക്കയിൽ	-10.0555
▁സുന്ദര	-10.0556
▁മുകളില	-10.0556
▁ചായ	-10.0561
▁ഉപയോഗപ്പെടുത്ത	-10.0561
▁സമതല	-10.0562
▁ശ്രമിച്ചു	-10.0564
ാണെന്നു	-10.0565
ഭാഗത്ത്	-10.0566
ത്തിനടുത്ത	-10.0568
“	-10.057
▁സാന്ദ്രത	-10.0575
ഖണ്ഡ	-10.0577
ുമൊക്കെ	-10.058
ശ്ശി	-10.0581
▁ഹേ	-10.0582
ത്തിൻ	-10.0582
42	-10.0585
വാക്യ	-10.0586
ിനെയും	-10.0589
▁ഖണ്ഡ	-10.059
▁നിർത്തി	-10.0594
▁ജില്ലയുടെ	-10.0597
യേറിയ	-10.0604
ചു	-10.0605
യുടേത	-10.0606
▁അറിയപ്പെട്ട	-10.0611
ത്തീ	-10.0611
▁ലോകകപ്പ്	-10.0612
▁ക്രോ	-10.0612
▁വേദന	-10.0612
▁വളർന്നു	-10.062
▁മടങ്ങി	-10.0623
മലയാള	-10.0626
▁മാനേജ	-10.0626
▁ടെലിവിഷൻ	-10.0626
▁വർ	-10.0627
▁വരുത്തി	-10.0628
▁സ്റ്റേഷൻ	-10.0631
െടുത്ത്	-10.0633
ദേവത	-10.0637
▁വെറും	-10.0637
▁സംസാര	-10.0641
ശാസ്	-10.0641
വേലി	-10.065
62	-10.0652
ളോ	-10.0652
ിലേയ്ക്ക്	-10.0655
ഭദ്ര	-10.066
▁തുറന്ന	-10.066
ഭാര	-10.0664
▁സന്യാസി	-10.0669
▁ആശയം	-10.0669
▁വിളിക്കുന്നത്	-10.0672
വിധി	-10.0672
സംവിധാന	-10.0675
▁വക	-10.0676
ന്റേയും	-10.0677
▁സ്വാഭാവിക	-10.0679
ീൽ	-10.0681
▁ബഹുമാന	-10.0683
▁പരസ്യ	-10.0684
▁പ്രതിഭാസ	-10.0689
മാണെന്നും	-10.0689
ാരംഭ	-10.0691
രാഗ	-10.0694
▁തങ്ങൾ	-10.0694
▁വരവ	-10.0695
ർക്കി	-10.0699
ശ്ശ	-10.0699
▁നോക്ക	-10.07
കോട്ട	-10.0701
▁പൊതുവായ	-10.0703
ga	-10.0703
▁32	-10.0712
▁മാല	-10.0721
▁യാഗ	-10.0729
േക്കാൾ	-10.073
▁ലീ	-10.0731
▁തീയതി	-10.0736
▁ട്രാ	-10.0737
▁മിനി	-10.074
ച്ചെടി	-10.074
▁മാതൃ	-10.0746
▁മനുഷ്യന്റെ	-10.0746
പ്പൂർ	-10.0748
▁കൊറിയ	-10.0749
ാണെങ്കിലും	-10.0749
▁ശിവൻ	-10.0749
▁ആൽ	-10.0751
▁സമരം	-10.0753
▁ജനന	-10.0756
▁വികാസ	-10.0761
▁മനസ്സ	-10.0763
va	-10.0764
▁മോശ	-10.0765
സ്റ്റീ	-10.0765
fi	-10.0768
▁തിരിച്ചറിയ	-10.077
▁കൊടി	-10.0771
▁വാൽ	-10.0775
ദൃ	-10.0775
▁അമേരിക്കയുടെ	-10.0776
ഞ്ചു	-10.0778
ുവെന്നും	-10.0778
▁തണ്ട	-10.0779
പുരുഷ	-10.0783
▁നമ്മുടെ	-10.0784
▁തൊലി	-10.0784
▁സമർപ്പിച്ച	-10.0784
▁ഗോവ	-10.0785
▁ഗാമ	-10.0786
▁1982	-10.0786
▁വയസ	-10.0787
▁ഭാവി	-10.0787
▁കുറയ	-10.0789
ന്ത്	-10.0789
ണിന്റെ	-10.079
രുടെയും	-10.0792
▁വില്യം	-10.0793
▁അകല	-10.0799
ോടുള്ള	-10.0803
ുണ്ടാക്കിയ	-10.0803
▁co	-10.0803
09	-10.0804
▁ആയിരിക്കും	-10.0806
▁ജൂ	-10.0809
53	-10.0811
▁നിയമസഭാ	-10.0812
61	-10.0812
▁ഡൈ	-10.0819
ടക്കം	-10.0822
▁വഹിക്കുന്ന	-10.0823
ഹാസ	-10.0826
▁വട്ട	-10.0829
ത്തല	-10.083
▁ഇന്റർനെറ്റ്	-10.0833
ചേർന്ന	-10.0833
▁പൂർത്തിയാക്കിയ	-10.0835
▁പരിക്രമണ	-10.0837
▁ഓസ്ട്രിയ	-10.0837
▁സൂക്ഷിച്ച	-10.0837
ബന്ധം	-10.0837
▁കഴിച്ചു	-10.0838
▁ദേവീ	-10.0838
▁ലഭിക്കുന്നു	-10.0838
▁സിദ്ധ	-10.0846
▁200	-10.0849
▁പ്രവൃത്തി	-10.0851
▁സിംഗ്	-10.0854
മെന്ന്	-10.0855
▁മനോഹരമായ	-10.0857
▁ചെയ്തിട്ടുണ്ട്	-10.0859
▁ശേഖരിക്ക	-10.0861
മുടി	-10.0864
ുടേയും	-10.0867
▁വർഷങ്ങൾക്കു	-10.0873
▁അഭിപ്രായം	-10.0873
02	-10.0878
39	-10.0879
▁സുബ്രഹ്മണ്യ	-10.0885
സമിതി	-10.0889
ോറിയ	-10.0889
▁വിശദീകരിക്ക	-10.089
▁ആകർഷണ	-10.089
ണോ	-10.0892
▁സ്വപ്ന	-10.0893
കനായ	-10.0894
▁ധാരാളമായി	-10.0895
സൂത്ര	-10.0896
▁ഉണ്ണി	-10.0897
au	-10.0898
▁കീഴിലുള്ള	-10.0907
▁രാജാ	-10.0908
▁ആരാധനാ	-10.0908
▁വഹിച്ചു	-10.0911
കനും	-10.0912
സന	-10.0925
മല്ലാത്ത	-10.0929
▁തുമ്പ	-10.094
വിചാര	-10.094
▁രാജ്യമാണ്	-10.094
▁മാംസ	-10.0941
81	-10.0942
▁പ്രതീക്ഷ	-10.0943
ുവാനായി	-10.0943
▁1977	-10.0946
▁അന്തർ	-10.0946
▁അമിത	-10.0947
റസ്	-10.0947
▁വർഷത്തിൽ	-10.0948
▁ബ്രിട്ടന	-10.095
ക്കാന	-10.095
▁ടിപ്പു	-10.0951
▁തിരഞ്ഞെടുപ്പ	-10.0956
▁തയ്യാറാക്കിയ	-10.0959
▁പഠിച്ചു	-10.0959
▁എതിർത്ത	-10.0965
▁ആശ്രമ	-10.097
▁ജീവിക്കുന്ന	-10.0972
▁കാണിക്കുന്ന	-10.0973
▁പ്രവേശന	-10.0978
▁വ്യത്യാസം	-10.0979
തോറും	-10.099
ക്കുറിച്ച്	-10.0991
▁റിപ്പോർട്ട്	-10.0992
ക്കോട്ട	-10.0993
07	-10.0994
ക്ഷൻ	-10.0995
▁അലങ്കാര	-10.0997
▁ബംഗ്ലാദേശ	-10.0997
▁ധ്രുവ	-10.0997
▁സ്വദേശി	-10.0998
യിനം	-10.1
ഗുണ	-10.1
ിയ്ക്കുന്നു	-10.1
▁ഭൂമിശാസ്ത്രം	-10.1001
▁മാറ്റിയ	-10.1005
പൂർവ	-10.1008
ക്കൂടി	-10.1015
ാരാധന	-10.1015
go	-10.1017
ന്റേ	-10.102
▁ഇള	-10.1021
▁ശാന്ത	-10.1026
നാക്കി	-10.103
▁വാങ്ങി	-10.1031
ver	-10.1038
▁ഇനം	-10.1039
▁മഹാദേവ	-10.1039
▁വെയറ	-10.1043
പദ്ധതി	-10.1051
വ്യൂഹ	-10.1052
▁1930	-10.1055
▁മഹാരാഷ്ട്ര	-10.1056
▁കഴിച്ച	-10.1056
ക്കളെ	-10.1057
കർമ്മ	-10.1058
▁സാധിച്ച	-10.106
യോഗം	-10.1064
▁2001	-10.1066
ാറ്	-10.1068
▁കടു	-10.1069
per	-10.1073
യിലേക്കുള്ള	-10.1074
▁എഴുതപ്പെട്ട	-10.1074
▁സിദ്ധാന്തം	-10.1079
do	-10.1082
▁തീവ്ര	-10.1083
▁തിരഞ്ഞെടുത്ത	-10.1084
▁പരാജയപ്പെടുത്തി	-10.1086
▁കിലോ	-10.1091
▁o	-10.1092
▁കുത്ത	-10.1093
▁ഗണിതശാസ്ത്ര	-10.1095
ങ്കു	-10.1101
▁അക്രമ	-10.1103
▁ഭദ്രകാളി	-10.1105
▁വിക്കിപീഡിയ	-10.1105
ശ്വാസ	-10.1105
▁സെൻ	-10.1108
▁പൂർവ	-10.1115
63	-10.1117
ിലെത്തി	-10.1118
ിരിക്കുക	-10.1121
▁അനുഭവപ്പെടുന്ന	-10.1124
▁എഴുത്ത	-10.1126
▁ക്ഷേത്രങ്ങൾ	-10.1126
ങ്ങളിലൊന്ന	-10.1128
ിലോ	-10.113
യൽ	-10.1134
ൻമാർ	-10.1138
ഡുകൾ	-10.114
▁ഉപകരണങ്ങൾ	-10.1144
▁പോലീസ	-10.1147
▁പ്രായം	-10.115
രാജ്	-10.1159
▁പലതും	-10.116
▁നോവൽ	-10.1162
▁മേള	-10.1163
▁തോതിൽ	-10.1167
▁കയറ	-10.117
he	-10.1171
▁എന്നിവരാണ്	-10.1171
▁പ്രശസ്തനായ	-10.1175
▁സേവനം	-10.1181
ക്കിന്റെ	-10.1189
ുമെല്ലാം	-10.1193
▁പട്ടികയിൽ	-10.1194
▁പേരുകൾ	-10.1194
▁കള്ള	-10.1195
രാജാ	-10.1196
▁സംഭവിക്ക	-10.1197
▁ഇവിടെയാണ്	-10.12
▁വെള്ളച്ചാട്ട	-10.1215
▁ചെണ്ട	-10.1216
▁സുൽത്താന	-10.1216
യ്ക്കായി	-10.1221
▁കഴിവു	-10.1222
▁ആട	-10.1223
▁അപേക്ഷ	-10.1227
ിനൊപ്പം	-10.1229
▁സ്വരൂപ	-10.1229
ക്കാട്ട	-10.1235
▁റാണി	-10.124
▁വിൽ	-10.124
93	-10.1241
ട്ടൻ	-10.1241
▁റഷ്യൻ	-10.1242
▁നടത്താൻ	-10.1249
▁ആവശ്യപ്പെട്ടു	-10.1249
▁പുസ്തകങ്ങൾ	-10.1251
▁സൺ	-10.1254
റിക്	-10.1255
▁വിമാനത്താവള	-10.1255
ോദയ	-10.1258
ായിരിക്കണം	-10.1259
▁ഉദാഹരണത്തിന്	-10.1264
തിലൂടെ	-10.1265
േര	-10.1265
▁യുഗ	-10.1268
▁സുഹൃത്ത	-10.1268
▁വാസ	-10.1269
▁അങ്ക	-10.127
▁അധിനിവേശ	-10.127
▁സോഷ്യലിസ്റ്റ്	-10.127
▁പ്രമേയ	-10.1271
ുമുണ്ട്	-10.1271
▁പ്രതിഭ	-10.1272
വിജയ	-10.1273
▁പ്രസിദ്ധമാണ്	-10.1279
ജ്ഞാന	-10.128
▁ജപ്പാന	-10.1281
▁വേദി	-10.1282
▁പ്രശസ്തി	-10.1282
പേ	-10.1282
▁പെരി	-10.1285
▁റഹ്	-10.1288
▁രാജവംശം	-10.1289
േണ	-10.1292
മെടുത്ത	-10.1295
▁വർഷത്തെ	-10.1295
ാകും	-10.1307
കാവ്യ	-10.1308
▁വിദഗ്ദ്ധ	-10.1316
▁പുറത്തിറക്ക	-10.1318
▁നൃത്തം	-10.1319
ക്കാനും	-10.1319
ചെയ്ത	-10.1322
72	-10.1325
▁നിലകൊള്ളുന്ന	-10.1326
▁അയ്യപ്പൻ	-10.1329
ഫോർ	-10.1334
പോലും	-10.1335
ഭൂത	-10.1336
▁ഉത്ഭവ	-10.1338
▁പറക്ക	-10.1341
▁കുറിച്ചുള്ള	-10.1342
▁ഉത്തരവ	-10.1346
തവണ	-10.1347
▁ദുഃഖ	-10.1349
▁കൂടുതലും	-10.1351
▁പരമ	-10.1355
▁ദക്ഷിണേന്ത്യ	-10.136
രിപ്പ	-10.1361
▁ഭൗതികശാസ്ത്ര	-10.1363
ോടുകൂടിയ	-10.1366
ിലേയും	-10.1368
ന്ദി	-10.1374
▁ഹാർ	-10.1374
▁കെട്ട	-10.1374
ശുദ്ധ	-10.1375
▁ചല	-10.138
▁ഉബുണ്ടു	-10.1382
▁പുരോഹിത	-10.1382
▁ഫിലിം	-10.1382
▁ഭൂഖണ്ഡ	-10.1383
▁1956	-10.1384
man	-10.1385
േതര	-10.139
ങ്ങളെല്ലാം	-10.1394
▁ഭൂത	-10.1399
▁കോശ	-10.1403
▁സയൻസ്	-10.1405
43	-10.1413
▁അവകാശം	-10.1417
▁വലിച്ച	-10.1419
▁സൂര്യൻ	-10.1419
▁പണ്ട്	-10.1425
▁മഹർഷി	-10.1426
be	-10.1428
▁കടുവ	-10.1429
വുകൾ	-10.143
▁ഇതിലെ	-10.1433
▁വിലക്ക	-10.1434
▁തീവണ്ടി	-10.1438
__	-10.1438
ുണ്ടെന്ന	-10.1439
▁ഈശ്വര	-10.1439
▁1997	-10.144
▁ഗണ്യമായ	-10.144
▁രാജീവ്	-10.1442
°	-10.1442
83	-10.1442
▁അറസ്റ്റ്	-10.1443
▁നൽകുകയും	-10.1445
▁ഒക്കെ	-10.1445
▁ആവ	-10.1449
നായും	-10.1451
▁പൂക്കൾ	-10.1451
▁ഇതുവരെ	-10.1452
തിന	-10.1453
▁ഉറപ്പ	-10.1455
tu	-10.1455
76	-10.1459
▁ഷി	-10.1462
ത്തിനെതിരെ	-10.1463
മണ്ണ	-10.1464
യാൾ	-10.1473
▁ഭാരം	-10.1479
▁കണക്കാക്കുന്നു	-10.148
▁അർഹ	-10.1481
ുന്നതിലും	-10.1485
തൊഴ	-10.1489
▁വായുവ	-10.1494
▁തികച്ചും	-10.1494
▁കാർബൺ	-10.1494
സൌ	-10.1494
▁ആരോപണ	-10.1494
▁മേരി	-10.1495
ങ്ങളിലുള്ള	-10.1504
ായിട്ടാണ്	-10.1509
യുഗ	-10.1511
തയിൽ	-10.152
▁അവസരം	-10.1521
▁ആനന്ദ	-10.1523
ഫീ	-10.1523
59	-10.1523
മ്യ	-10.1524
▁വെട്ട	-10.1527
▁വയല	-10.1528
സ്ഥാപ	-10.1532
▁പുളി	-10.1533
പുല	-10.1537
▁/	-10.1537
▁എന്നിവയെ	-10.1542
▁സമ്പ	-10.1542
ിൽനിന്ന്	-10.1545
58	-10.1547
▁മഹാവിഷ്ണു	-10.1549
മാർക്ക്	-10.1551
സ്ഫോടന	-10.1551
▁താമസിയാതെ	-10.1551
▁അത്ഭുത	-10.1551
▁പിടിച്ചെടുത്ത	-10.1552
▁വടക്ക	-10.1552
രുടേയും	-10.1554
▁കമ്പനിയുടെ	-10.1554
സിദ്ധാന്ത	-10.1557
യുമായിരുന്നു	-10.1559
▁നള	-10.1561
▁ഉയരമുള്ള	-10.1569
▁പതിനാല	-10.1573
▁വിധം	-10.1576
▁അച്ച	-10.1576
▁ഡീ	-10.1577
ത്തിലുണ്ട്	-10.1579
▁എത്തുന്ന	-10.1581
▁ലിംഗ	-10.1581
നാക	-10.1582
78	-10.1589
യിന	-10.1591
യൊക്കെ	-10.1599
▁കൊണ്ടുള്ള	-10.1604
ലിനെ	-10.1605
ിണി	-10.1605
▁കാട	-10.1606
▁മെഡിക്കൽ	-10.1608
▁ഭൂകമ്പ	-10.161
▁1957	-10.1611
op	-10.1614
▁ജ്യോതിഷ	-10.1616
▁മറിച്ച്	-10.1618
▁അറബ്	-10.1618
wa	-10.162
സംഘടന	-10.162
പ്രായ	-10.1621
▁ഹാരി	-10.1621
ത്തേക്കു	-10.1622
51	-10.1622
▁പശു	-10.1623
97	-10.1627
▁വ്യാകരണ	-10.1628
ുപയോഗിച്ച	-10.1629
▁ഭാഗങ്ങള	-10.1638
▁രവി	-10.1641
ാറുള്ളത്	-10.1643
▁ഡേ	-10.1643
▁കൈമാറ	-10.1644
▁വിദ്യാ	-10.1647
▁ഭാഷകൾ	-10.1647
67	-10.1648
വിഷയ	-10.1656
▁മനുഷ്യര	-10.1662
▁ഗവൺമെന്റ	-10.1666
▁സ്വാതന്ത്ര്യസമര	-10.1667
▁പശ്ചിമഘട്ട	-10.1667
▁വിപണി	-10.167
ണീ	-10.1674
▁വിവരിക്കുന്ന	-10.1674
മീറ്ററ	-10.1674
▁സഞ്ചാരി	-10.1675
▁പ്രസ്ഥാനം	-10.1676
▁പ്ലേ	-10.1679
ക്കാറുണ്ട്	-10.1686
tic	-10.1687
▁ലു	-10.169
▁കഥകൾ	-10.1692
കേന്ദ്രം	-10.1694
69	-10.1696
▁വിസ്തൃതി	-10.1701
▁ശനി	-10.171
ുണ്ടെന്ന്	-10.1712
രുമായി	-10.1716
▁മെക്സിക്കോ	-10.1723
▁പേടക	-10.1724
▁വാങ്ങ	-10.1724
▁തെക്കുകിഴക്ക	-10.1724
▁1970	-10.1725
si	-10.1726
ിലധികം	-10.1728
ഷീ	-10.1728
79	-10.173
▁തിരിഞ്ഞ	-10.1731
ുപയോഗിക്ക	-10.1732
▁ഹർ	-10.1737
▁കുറ്റി	-10.174
▁അതോടെ	-10.174
▁സ്ട്ര	-10.174
മെങ്കിലും	-10.1743
▁നാരായണൻ	-10.1745
▁അപൂർവ്വ	-10.1748
▁1980	-10.1749
49	-10.1755
▁രചിക്കപ്പെട്ട	-10.1765
ചേ	-10.1767
▁സഞ്ചരിക്ക	-10.1768
ല്ലാത്ത	-10.1768
▁വ്യത്യസ്തമായ	-10.1768
ss	-10.177
71	-10.1772
▁എന്റെ	-10.1774
▁ബിൻ	-10.1778
▁യൂണിയന	-10.1779
യുമായുള്ള	-10.1781
▁അർജന്റീന	-10.1782
▁ലക്ഷ്മണ	-10.1782
▁അനുവദിക്ക	-10.1782
ലിന്	-10.1782
▁ഗവേഷക	-10.1782
▁വേഗത്തിൽ	-10.1782
▁തെളിയിച്ച	-10.1783
68	-10.1783
ിൻ്റെ	-10.1783
▁1979	-10.1784
▁1964	-10.1784
▁ഇതോടെ	-10.1785
▁അഭയ	-10.1786
▁ഊര	-10.1787
▁കറുപ്പ	-10.1787
▁അവതരിപ്പിച്ചു	-10.1794
ശൈലി	-10.1794
നാഗ	-10.1795
▁എതിർ	-10.1796
▁വിമാനത്താവളം	-10.1797
ുടേത	-10.18
lu	-10.1801
ളുകൾ	-10.1801
ിലേറെ	-10.1806
▁ജൂത	-10.1816
ക്കുള	-10.1818
▁പിള്ള	-10.1819
▁സബ്	-10.182
▁ഒരുമിച്ച	-10.1821
▁നന്ന	-10.1821
▁കാളി	-10.1822
മരണ	-10.1822
ടിച്ച	-10.1825
▁പ്രതിപാദിക്ക	-10.1826
വെച്ചു	-10.1827
ന്മാർക്ക്	-10.1829
▁നേരിട്ടു	-10.183
മുണ്ടാ	-10.1832
ാവലി	-10.1833
▁തോൽ	-10.1834
▁ജോർജ്	-10.1834
▁പുലർത്ത	-10.1835
▁പെൻ	-10.1836
▁ഭാഗവത	-10.1841
▁ഖുർ	-10.1842
▁വധിച്ച	-10.1844
▁2018	-10.1845
▁2015	-10.1845
▁അറ്റ	-10.1848
▁തേടി	-10.1848
ഷ്യൻ	-10.1849
▁ഘടകങ്ങൾ	-10.1853
കളോടെ	-10.1855
ുകയില്ല	-10.1858
52	-10.186
ുമ്പോഴും	-10.1863
▁വിശ	-10.1864
പുസ്തക	-10.1867
▁മദർ	-10.1867
45	-10.1868
കളോ	-10.187
▁നൽകാൻ	-10.1872
▁സംസ്കൃതത്തിൽ	-10.1873
ിക്കുവാൻ	-10.1874
▁പുത്രന	-10.1877
▁മത്സരങ്ങളിൽ	-10.1879
▁നീർ	-10.188
നേയും	-10.1882
▁ശരീരം	-10.1882
▁പടി	-10.1887
▁വിജയിച്ച	-10.1887
▁വേഷം	-10.189
▁പ്രശസ്തമാണ്	-10.1893
▁എന്നിവിടങ്ങളില	-10.1897
▁കൊൽക്കത്ത	-10.1899
▁തൃശൂർ	-10.1899
▁സുൽത്താൻ	-10.1899
▁കുടികൊള്ളുന്ന	-10.1899
▁ബൈബിള	-10.1899
▁കണ്ടുപിടിച്ച	-10.19
▁1994	-10.1901
▁ഉള്ളടക്ക	-10.1901
▁1987	-10.1901
മൂല്യ	-10.1902
▁2016	-10.1903
പ്പിട	-10.1905
▁പോവ	-10.1905
▁പർവ്വത	-10.1905
▁താമര	-10.1906
os	-10.1911
മന്ത്ര	-10.1913
പറ	-10.1914
▁പേരിലാണ്	-10.1916
കൃഷി	-10.1918
ിക്കുമ്പോൾ	-10.1918
▁അഞ്ചാം	-10.1919
ലിയൻ	-10.1921
im	-10.1921
▁സൂര്യന	-10.1923
▁അതിലെ	-10.1925
▁വാക്കുകൾ	-10.1929
▁ഓക്സ	-10.1931
▁സംസ്കാരം	-10.1938
▁ഇവിടം	-10.1941
നിന്ന	-10.1944
▁നിർമ്മിച്ചു	-10.195
▁കൊടുത്തു	-10.1954
▁നദികൾ	-10.1955
▁മ്യൂസിയ	-10.1958
▁നിശ്ചിത	-10.1958
▁എഴുന്നള്ള	-10.1958
▁വിചാരണ	-10.1958
▁ഇറാഖ	-10.1958
കക്ഷി	-10.1961
▁സിറിയ	-10.1962
▁പ്രദക്ഷിണ	-10.1962
▁യേശു	-10.1962
ക്കുള്ളിൽ	-10.1968
▁ഭക്തി	-10.1968
യാട്ട	-10.1973
▁നിയന്ത്രണം	-10.1974
ഫ്റ്റ്	-10.1979
▁ആവശ്യമായ	-10.198
▁പൗ	-10.1981
▁ഇളം	-10.1985
ഇംഗ്ലീഷ്	-10.199
ങ്ങും	-10.199
▁ഡ്ര	-10.1992
നുമായി	-10.1997
▁നടത്തിയിരുന്ന	-10.1997
▁അധ	-10.1998
▁വധ	-10.2001
▁ഇടയ്ക്ക	-10.2005
▁മനസ്സില	-10.2007
പര്യ	-10.2007
▁ചുര	-10.2013
▁പരിശീലന	-10.2016
▁ക്യാ	-10.2016
▁അംഗങ്ങൾ	-10.2016
▁ചെയ്യപ്പെട്ടു	-10.2017
▁ഹനുമാൻ	-10.2018
▁ഇതിഹാസ	-10.2018
▁തിരികെ	-10.2018
▁പെൺകുട്ടി	-10.2018
▁ഭൂപ്രകൃതി	-10.2019
▁നാമകരണം	-10.2019
▁വേണ്ടിയുള്ള	-10.202
▁കൃഷ്ണപിള്ള	-10.2021
▁ഊർജ്ജം	-10.2028
▁ആറാം	-10.2032
ക്കൊണ്ടു	-10.2033
ക്രിയ	-10.2034
സംഹിത	-10.2036
▁തുറന്നു	-10.2039
▁90	-10.2045
▁കരുതപ്പെടുന്ന	-10.205
ഗോള	-10.2055
സിനു	-10.2056
▁പ്രഭ	-10.2057
▁ഇരട്ട	-10.2059
▁നാടകം	-10.2059
▁രോഗങ്ങൾ	-10.2066
▁കാലത്തെ	-10.2068
▁കാലത്താണ്	-10.207
▁ധാരണ	-10.2072
▁ഏഴ്	-10.2074
ുണ്ടാകും	-10.2075
പർ	-10.2076
ോടുകൂടി	-10.2077
▁ക്രിസ്ത്യൻ	-10.2077
▁ജനുസ്സ	-10.2078
▁ബൈബിൾ	-10.2078
▁1995	-10.208
▁വീതം	-10.2081
▁ചിര	-10.2085
▁വ്രത	-10.2088
▁ഗതാഗതം	-10.2089
▁ഛ	-10.2089
▁നഗരസഭ	-10.2091
▁തേങ്ങ	-10.2094
▁തനി	-10.2094
▁തയ്യാറാക്ക	-10.2095
ാകൃതി	-10.2096
▁ചിത്രത്തിലെ	-10.2096
▁പ്രിയ	-10.2098
ുന്നതുവരെ	-10.2098
▁കളിക്ക	-10.21
മായതിനാൽ	-10.21
െത്തുന്ന	-10.2104
▁ത്വ	-10.2112
▁ശബ്ദം	-10.2112
▁ഇരുപത്തി	-10.2112
വർത്തന	-10.2117
▁കാലഘട്ടം	-10.2117
ാരംഭിച്ച	-10.2122
▁താമസിച്ച	-10.2125
▁സമീപം	-10.2125
▁ഇടുക്കി	-10.2131
യുണ്ടായ	-10.2133
▁സംരംഭ	-10.2138
▁ദേവസ്വം	-10.2138
▁പരിഹരിക്ക	-10.2138
▁ചാല	-10.2138
▁നാവിക	-10.2138
▁സെക്കന്റ	-10.2139
▁ഒപ്പം	-10.214
ക്കെതിരായ	-10.2141
ധിഷ്ഠിത	-10.2144
▁അക്കാലത്തെ	-10.2144
േഴ്	-10.2146
പ്പഴ	-10.2147
▁പുരസ്കാരങ്ങൾ	-10.2152
പട	-10.2153
ിക്കേണ്ട	-10.2153
ിപ്പിച്ച്	-10.2157
ജീവ	-10.2157
▁പാൽ	-10.2157
നെയും	-10.2158
▁കുറയ്ക്ക	-10.2163
▁ഗ്രാമത്തിൽ	-10.2166
▁സംസ്ഥാനത്തിന്റെ	-10.2167
▁കാലി	-10.2168
▁പരിഗണിക്ക	-10.2169
▁നമുക്ക	-10.2172
▁ഇപ്രകാരം	-10.2174
▁+	-10.2175
▁കർത്താവ	-10.2176
▁വിവരണ	-10.2182
▁സമീപത്ത	-10.2183
▁ആദര	-10.2189
▁ബർ	-10.2189
വർണ	-10.2194
▁ഉത്തർപ്രദേശ	-10.2198
▁പ്രചോദന	-10.2198
▁അച്യുത	-10.2198
▁സച്ചിൻ	-10.2199
▁വംശനാശ	-10.22
▁ശീത	-10.22
▁1969	-10.22
▁1965	-10.2202
▁പരിസര	-10.2205
മന്ത്രി	-10.2207
▁2019	-10.2208
▁ഹിമ	-10.221
▁ബ്ല	-10.2211
▁ബ്രാഡ്മാന	-10.2211
ക്കാണ	-10.2211
▁പേരാണ്	-10.2212
നിൽക്കുന്ന	-10.2212
▁വിഭാഗങ്ങൾ	-10.2214
ഷണൽ	-10.2214
നർ	-10.2215
2)	-10.2216
▁സെർവ	-10.2219
▁വിസ	-10.2225
▁സാങ്കേതികവിദ്യ	-10.2227
▁താമസിക്കുന്ന	-10.2231
▁ബോർഡ്	-10.2233
▁മാർഗ	-10.2235
ക്കുകൾ	-10.2238
▁യേശുവ	-10.2241
▁കപ്പല	-10.2244
▁പ്രബന്ധ	-10.2246
▁നും	-10.2246
▁കൃത്യ	-10.2246
▁വാക്ക്	-10.2259
▁കഠിന	-10.2259
▁മയ്യഴി	-10.2259
▁സിനിമയിൽ	-10.2261
ിൽനിന്നും	-10.2262
▁പുറമെ	-10.2265
കമ്പ	-10.2266
▁75	-10.2267
▁കൃത്യമായി	-10.2268
▁തടസ്സ	-10.2269
▁കൊണ്ടുവര	-10.227
ത്തെത്തുടർന്ന്	-10.227
▁ചരിത്രത്തിലെ	-10.2271
▁ഉൾക്കൊള്ള	-10.2274
ഡേ	-10.2274
26	-10.2278
പ്പുകൾ	-10.2279
▁പഞ്ചാബി	-10.2284
നേതൃത്വത്തിലുള്ള	-10.2288
ിലായി	-10.2289
mo	-10.2289
യില്ലാത്ത	-10.2289
▁പറ്റിയ	-10.2293
▁കാലയളവ	-10.2294
▁ശേഷമാണ്	-10.2295
വട്ടം	-10.2305
കരണം	-10.2305
▁വിറ്റ	-10.2311
▁വന്ന്	-10.2312
▁പരന്ന	-10.2314
ത്തുനിന്നും	-10.2315
ില്ലെങ്കിലും	-10.2315
ാനന്തര	-10.232
▁പിൻഗാമി	-10.2321
▁സുപ്രീം	-10.2321
▁രൂപവത്കരിച്ച	-10.2321
▁സന്തോഷ	-10.2321
▁തണുപ്പ	-10.2321
▁വൈഷ്ണവ	-10.2321
▁അന്റാർട്ടിക്ക	-10.2321
▁സംഘടിപ്പിക്ക	-10.2321
▁തിരക്കഥ	-10.2323
മാണുള്ളത്	-10.2325
▁സുരക്ഷിത	-10.2326
▁സ്ഥലത്തു	-10.2328
▁വസിക്കുന്ന	-10.233
▁ഭരണകൂട	-10.2332
▁മത്സരം	-10.2335
വിരുദ്ധ	-10.2335
▁പിതാവ	-10.2336
▁ഭക്തർ	-10.2336
▁തുടങ്ങിയവർ	-10.2338
▁ഇടതു	-10.2341
▁45	-10.2349
ൂരിലെ	-10.2349
ള്ളു	-10.2351
പിച്ച	-10.2357
▁പാലി	-10.2359
▁നിർബന്ധിത	-10.2362
▁റൊ	-10.2366
പ്പെടുത്തുന്ന	-10.2376
▁ഇത്ര	-10.2377
21	-10.2378
ിലൊന്ന	-10.2378
ദോഷ	-10.238
▁തമോദ്വാര	-10.2382
▁സന്ദർഭ	-10.2382
▁ഒരിക്കലും	-10.2382
പെരു	-10.2385
▁ഭവന	-10.2389
▁കൊന്ന	-10.239
▁മൂട	-10.2394
ത്തിലെത്തി	-10.2396
▁പേരും	-10.2396
▁ഉപയോഗിക്കാറുണ്ട	-10.2398
ry	-10.24
സംബന്ധമായ	-10.2404
▁ഭഗ	-10.2404
കളോട്	-10.2412
▁ക്ഷേത്രങ്ങളിൽ	-10.2413
34	-10.2419
▁ജന്മി	-10.242
▁പറയുന്നുണ്ട്	-10.2422
▁ഗതി	-10.2424
പ്പും	-10.2425
▁കാന്ത	-10.2433
29	-10.2434
കൊല്ല	-10.2437
▁പോർ	-10.2438
▁400	-10.2441
▁ഗെവാറ	-10.2444
▁ജർമനി	-10.2444
വിനിമയ	-10.2445
▁ദിനപത്ര	-10.2446
പാർ	-10.2447
മുണ്ടാക	-10.2447
▁പത്രാധിപ	-10.2448
ea	-10.2449
▁ഒത്തു	-10.2451
▁ചുറ്റുമുള്ള	-10.2452
▁ഫ്രാൻസിസ്	-10.2453
▁നാട്ടിലെ	-10.2455
▁നടക്കുന്നു	-10.2458
ity	-10.2459
ത്തിലോ	-10.2461
▁ബോംബെ	-10.2461
കഴി	-10.2461
▁ലാന്റിക്	-10.2463
▁മനുഷ്യന	-10.2465
▁വിഗ്രഹം	-10.2466
▁ആശുപത്രി	-10.2471
▁പുറത്താക്ക	-10.2473
-20	-10.2473
ധർമ്മ	-10.2476
ഴുത	-10.2479
▁ഫലം	-10.2491
▁സംസാരിക്ക	-10.2499
▁പിൽക്കാല	-10.2499
വാത	-10.2499
▁അഭിപ്രായപ്പെട്ട	-10.2499
▁ചെവി	-10.2501
ക്കളും	-10.2506
▁ഗലീലിയോ	-10.2507
▁വ്യതിയാന	-10.2507
▁വടക്കുകിഴക്ക	-10.2508
▁പ്രാർത്ഥന	-10.2508
▁വീക്ഷണ	-10.2508
▁ആരാധനാലയ	-10.2508
കാണ്ഡ	-10.2517
▁തിരുത്ത	-10.2518
ശങ്ക	-10.2518
▁സാക്ഷി	-10.2522
റിനെ	-10.2523
ളീ	-10.2524
ക്യു	-10.2524
▁കമ്മ	-10.2524
▁st	-10.2525
യിലേയ്ക്ക്	-10.2526
ങ്ങളിലൊന്നാണ്	-10.2526
ശിര	-10.254
▁നിർമ്മ	-10.254
▁രാജ്യങ്ങളിലും	-10.2541
▁ഉം	-10.2541
▁ഖര	-10.2541
▁നാസ	-10.2544
▁ചുറ്റു	-10.2544
▁അക്ക	-10.2544
▁മാള	-10.255
▁ഉണ്ടാക്കി	-10.2556
പ്പുറ	-10.256
▁കരുതിയ	-10.2561
ുകളായി	-10.2563
ലാന്റ	-10.2565
ലാൻഡ്	-10.2568
▁ചിത്രങ്ങളിൽ	-10.2568
▁പൊന്നാനി	-10.257
▁കാഫ്ക	-10.257
ലിനു	-10.257
ശീവേലി	-10.2571
താപ	-10.2571
▁1984	-10.2573
▁1975	-10.2573
ll	-10.2574
▁കേവല	-10.2575
▁ദേശീയപാത	-10.2576
രെയും	-10.2577
കൊള്ള	-10.2578
ലുകളും	-10.2579
▁ടീമിന്റെ	-10.2581
▁അംശ	-10.2582
ഗീത	-10.2585
▁ഗുണം	-10.259
സ്വഭാവ	-10.2593
▁കൊട്ടാരം	-10.2594
ുകയുള്ളൂ	-10.2601
▁കാള	-10.2603
▁ശൃംഖല	-10.2608
ിനോടു	-10.2611
▁ജയിൽ	-10.2611
▁സിംഗ	-10.2613
▁വായിച്ച	-10.2614
▁പ്രഖ്യാപിച്ച	-10.2614
ാധിപ	-10.2614
ഘാത	-10.2616
▁ഭാഷയുടെ	-10.2617
സാഹ	-10.2618
റിയപ്പെടുന്നത്	-10.262
▁പത്ത്	-10.2624
സമര	-10.263
▁റിപ്പബ്ലിക്ക്	-10.2632
തെരഞ്ഞെടുപ്പ	-10.2633
പ്പോഴേക്കും	-10.2633
▁പരിശീലനം	-10.2635
▁തിരിച്ചറിഞ്ഞ	-10.2637
▁അഭിമുഖ	-10.2638
▁കിംഗ്	-10.2638
▁പനി	-10.2641
മൃത	-10.2641
▁ആക്രമിക്ക	-10.2642
▁ഘന	-10.2642
▁പൂർണമായ	-10.2642
▁1990	-10.2643
▁ചങ്ങ	-10.2644
ധീന	-10.2649
▁മണൽ	-10.2649
▁മൺ	-10.265
▁ഹിറ്റ്	-10.2653
▁സംഭവിക്കുന്ന	-10.2654
▁മനുഷ്യർ	-10.2655
▁പത്മ	-10.2656
▁പ്രചാരത്തില	-10.2657
ഗ്ല	-10.2661
ക്കുമ്പോൾ	-10.2665
▁ഓസ്	-10.2666
▁സപ്ത	-10.2667
▁അതിര	-10.2681
▁നീളവും	-10.2694
▁തെരേസ	-10.2697
▁കായല	-10.2702
▁കലാലയ	-10.2703
▁അനുവാദ	-10.2706
▁ലാമിക	-10.2711
▁ക്ലാസ	-10.2711
ine	-10.2712
ക്രമം	-10.2712
▁ഇപ്പോഴത്ത	-10.2713
▁വരെയും	-10.2717
▁പ്രദേശമാണ്	-10.2718
▁കൗ	-10.2721
▁പ്രത്യക്ഷപ്പെട	-10.2721
▁ചേർത്തു	-10.2724
▁മദ്യ	-10.2726
ാമെന്ന്	-10.2726
▁നല്ക	-10.2726
പ്പാട്ട്	-10.2728
തീർത്ഥ	-10.2731
▁പ്രതല	-10.2735
▁ക്രിക്കറ്റ	-10.274
ex	-10.2744
▁അറ്റത്ത	-10.2746
ിക്കപ്പെടുന്നു	-10.2747
ർഗ്ഗ	-10.2748
▁രാഗ	-10.2753
▁നഗരത്തിലെ	-10.276
▁ജപ്പാൻ	-10.2761
▁യൂണിറ്റ	-10.2761
നിയൻ	-10.2762
ഗേ	-10.2762
▁മൈൽ	-10.2762
▁1989	-10.2764
▁500	-10.2767
▁റിപ്പോർട്ട	-10.2767
കുള	-10.2768
▁ഫോട്ടോ	-10.2769
▁മരണശേഷം	-10.2769
▁അപ്	-10.2771
നുമായിരുന്നു	-10.2773
▁ലഭിക്കുന്നത്	-10.2774
▁തുടങ്ങിയവയാണ്	-10.2779
▁കക്ഷി	-10.2782
▁നേതാവ്	-10.2791
▁ചോദ്യം	-10.2793
▁അടുക്ക	-10.2795
ട്ടൺ	-10.2798
▁മുപ്പത	-10.2798
വുമുണ്ട്	-10.2799
▁സ്വന്തമായി	-10.2801
▁അയ്യപ്പ	-10.2802
▁300	-10.2808
28	-10.2808
▁നിലനിന്ന	-10.2811
▁മാവേലിക്കര	-10.2825
▁പ്രദർശിപ്പിക്ക	-10.2825
▁കൂട്ടായ്മ	-10.2825
▁യഥാക്രമം	-10.2826
▁1993	-10.2828
▁സമാന്തര	-10.2828
▁പടിഞ്ഞാറ	-10.2836
▁ഗ്രന്ഥം	-10.2837
▁പട്ടണം	-10.2838
94	-10.2839
▁തയ്യാറായ	-10.2841
▁നിലവിലുണ്ട	-10.2845
ഭാഷാ	-10.2847
▁പ്രവേശനം	-10.2849
▁മേഖലയിലെ	-10.2849
▁നാനോ	-10.285
74	-10.285
▁കരാറ	-10.2851
▁രോമ	-10.2854
▁ഗോവിന്ദ	-10.2857
ടുപ്പ	-10.2862
▁പോസ്റ്റ	-10.2862
ാറുള്ള	-10.2863
നാഥ്	-10.2865
ത്തൊ	-10.2865
▁സഹായം	-10.287
▁ഇംഗ്ലണ്ട്	-10.2875
▁സഹായിച്ചു	-10.2875
▁വിജയിച്ചു	-10.2881
വാസികൾ	-10.2882
▁സംസ്ഥാനത്തെ	-10.2883
▁നാടൻ	-10.2885
പേർ	-10.2887
യിലേക്കും	-10.2888
വത്കരണ	-10.2888
തെന്ന	-10.289
▁കമ്മീഷൻ	-10.289
▁ഭീകര	-10.2891
▁ബ്രാഡ്മാൻ	-10.2891
▁സാക്ഷരത	-10.2892
ൾഡ്	-10.2892
▁വേൾഡ്	-10.2893
▁1986	-10.2894
▁ചാവേസ	-10.2895
▁പൂർത്തിയാക്കി	-10.2895
▁ജനവിഭാഗ	-10.2897
▁രാജ്യത്ത്	-10.2899
നിന്നുള്ള	-10.29
▁വെളിപ്പെടുത്ത	-10.29
▁ഒരോ	-10.2902
▁പ്രബല	-10.2905
▁സോമ	-10.291
ഘടക	-10.2912
▁ശ്രമങ്ങൾ	-10.2913
▁പേജ	-10.2914
ലൻഡ	-10.2926
മാസത്തിലെ	-10.2926
▁മേധാവി	-10.2933
▁വാല	-10.2936
ന്ദർ	-10.294
▁(20	-10.2948
▁തന്നെയായിരുന്നു	-10.2948
ാശയ	-10.2951
▁ആണെന്ന്	-10.2952
ദൈർഘ്യ	-10.2954
▁ആദ്യകാലത്ത്	-10.2954
▁പരശുരാമ	-10.2956
▁പഠിപ്പിച്ച	-10.2956
▁നിഗമന	-10.2956
▁ഉപേക്ഷിക്ക	-10.2956
▁കേശവ	-10.2957
▁ഉടമസ്ഥ	-10.2958
▁1949	-10.2958
▁വർദ്ധിക്ക	-10.2958
▁ജോർജ്ജ്	-10.2958
ac	-10.2959
▁വൈക്കം	-10.2962
▁പതിവ്	-10.2963
▁അണക്കെട്ട്	-10.2963
ദാർ	-10.2967
▁കൊണ്ടും	-10.297
▁സ്വർണ	-10.2972
▁ഭൂരിപക്ഷ	-10.2972
നാൾ	-10.2972
▁അംഗമായി	-10.2973
▁ഔദ്യോഗികമായി	-10.2973
നാരായണ	-10.2975
▁ശുക്ര	-10.2977
സഹായ	-10.2988
▁അകലെയാണ്	-10.2991
യുക്ത	-10.2992
▁മറ്റൊന്ന	-10.2993
▁സമ്മാനം	-10.2993
06	-10.2993
▁ഒഫ്	-10.2999
ാത്മ	-10.3006
▁കണക്കാക്കിയ	-10.3011
ബ്ലി	-10.3012
▁സമാ	-10.3014
മെൻറ	-10.3016
ളിന്റെ	-10.3017
▁സ്ഥലങ്ങൾ	-10.3018
ുവാന	-10.3021
▁പ്രോത്സാഹിപ്പ	-10.3022
▁മൈക്രോസോഫ്റ്റ	-10.3022
▁വീഡിയോ	-10.3022
▁മണിക്കൂർ	-10.3022
▁പകർന്ന	-10.3022
▁എന്നർത്ഥം	-10.3023
▁പത്നി	-10.3023
▁1973	-10.3023
▁പ്രണയ	-10.3024
▁രാജ്യാന്തര	-10.3026
മാണു്	-10.3027
ൂടെ	-10.3027
▁താഴ്വര	-10.3027
പ്പിക്കുകയും	-10.3028
▁നിരക്ക	-10.3029
▁150	-10.303
കാന്ത	-10.3031
▁പഴക്കമുള്ള	-10.3033
▁ഉൾപ്പെടുത്തിയ	-10.3035
▁മക്കൾ	-10.3035
ചൂ	-10.3036
▁കണ്ണികൾ	-10.3041
▁പലതര	-10.3048
▁വികാര	-10.305
▁നൂറു	-10.3052
ടക്കമുള്ള	-10.3053
ത്തുന്നു	-10.3055
ഡ്സ്	-10.3058
▁പേരിലും	-10.3059
മിക്	-10.3061
▁സമ്പ്രദായം	-10.3068
▁അറിയപ്പെട്ടു	-10.3069
▁ചെയ്യപ്പെടുന്ന	-10.3076
▁ലോകത്തിന്റെ	-10.3079
യെടുത്ത	-10.308
▁പതിപ്പ്	-10.308
▁പരാജയപ്പെട്ടു	-10.3083
▁വെൽ	-10.3084
▁ഭാരതത്തിൽ	-10.3085
▁അയച്ചു	-10.3086
▁പത്തനംതിട്ട	-10.3088
▁സ്പാനിഷ്	-10.3088
▁അടങ്ങിയിരിക്ക	-10.3088
▁1961	-10.309
ാദേവി	-10.3091
▁യോഗ്യത	-10.3092
▁സ്ഥാനത്ത്	-10.3095
▁മുഹമ്മദ	-10.3098
▁പഞ്ചായത്ത്	-10.31
▁അഭിപ്രായത്തിൽ	-10.31
▁19-	-10.3101
ഭോഗ	-10.3101
മ്പല	-10.3102
▁ന്യൂയോർക്ക്	-10.3103
▁ചന്ത	-10.3109
നേര	-10.3111
കൂടിയ	-10.3111
ലക്ഷ്മി	-10.3114
ig	-10.3114
▁കൂടുതല	-10.3114
▁എയർ	-10.3115
▁പോര	-10.3116
പോന്ന	-10.3117
▁ഒരുപാട	-10.3118
▁എട്ട	-10.3122
ിലേയ്ക്കു	-10.3125
▁വർണ	-10.3126
വാദ്യ	-10.3127
▁സ്വർഗ്ഗ	-10.313
▁പരാമർശിക്കുന്ന	-10.3131
▁മാറുന്നു	-10.3133
▁ധൂമകേതു	-10.3136
▁നേതൃത്വ	-10.3144
▁ഇരുപത്	-10.3145
▁വികസിപ്പിച്ചെടു	-10.3145
▁തള്ളി	-10.3148
താണു	-10.3154
▁അനുഷ്ഠാന	-10.3154
▁ഏറ്റവുമധികം	-10.3154
▁ഗവർണർ	-10.3154
▁മാർത്താണ്ഡവർമ്മ	-10.3155
▁അബ്ദുൽ	-10.3155
36	-10.3156
▁1981	-10.3157
ണമെന്നും	-10.3161
▁നെയ്	-10.3163
▁അംഗങ്ങള	-10.3164
▁സാധിക്കുന്ന	-10.3165
ാക്ഷര	-10.3171
▁ഇവർക്ക്	-10.3175
▁പ്രചാരം	-10.3177
പ്പെട്ടിട്ടുള്ള	-10.3184
▁ക്രിസ്ത്യാനി	-10.3184
മൊരു	-10.3188
▁ലിയനാർഡോ	-10.3189
▁നിലയ	-10.3193
▁കാഴ്ചപ്പാട	-10.3195
▁പിറന്ന	-10.3196
തിനാല	-10.3198
▁ലാൽ	-10.3199
▁വശത്ത	-10.3199
▁ക്ഷയ	-10.3201
▁നയിക്ക	-10.3204
▁എന്നറിയപ്പെട്ട	-10.3207
▁വേർതിരിച്ച	-10.3208
▁മത്സരങ്ങൾ	-10.3211
മാണെന്ന	-10.3215
ചരണ	-10.3216
jpg	-10.3222
▁കാലിഫോർണിയ	-10.3222
▁രൂക്ഷ	-10.3222
▁യുണിക്സ	-10.3222
▁ഇടതുപക്ഷ	-10.3223
▁രസതന്ത്ര	-10.3223
▁പാരീസ	-10.3225
▁കൊടുക്കുന്ന	-10.3225
▁വിരമിച്ച	-10.3226
േഷ	-10.3226
പ്രധാന	-10.3227
കളെക്കുറിച്ച	-10.3228
▁മുന്നണി	-10.3232
▁പ്രകടന	-10.3235
▁തയ്യാറ	-10.3243
▁ഇതും	-10.3245
സംസ്കാര	-10.3248
▁ആക്രമണം	-10.325
▁ഹെർ	-10.3251
▁ഭാഗത്തു	-10.3254
യുണ്ടാക്ക	-10.3257
ാണെന്നാണ്	-10.3266
മുണ്ടെന്ന	-10.3272
▁പ്രതിഷ്ഠിച്ച	-10.3276
▁ശതമാന	-10.328
▁നല്കി	-10.3286
▁തെയ്യം	-10.3287
കളെല്ലാം	-10.3287
▁കണ്ടെത്തിയത്	-10.3288
വരായിരുന്നു	-10.3289
▁കയറ്റുമതി	-10.3289
▁മൃതദേഹ	-10.3289
▁ലഹള	-10.3289
▁ബാഹ്യ	-10.3289
പഞ്ച	-10.329
▁കേൾക്ക	-10.3291
▁കൊലപാതക	-10.3292
▁1985	-10.3293
▁റിപ്പബ്ലിക്ക	-10.3293
ിക്കാനും	-10.3295
▁വികിരണ	-10.3296
ുകിടക്കുന്ന	-10.3298
▁പ്രാപിക്ക	-10.3298
▁ബെൽ	-10.33
▁ഇവയ്ക്ക്	-10.3302
ant	-10.3302
ത്തിനുവേണ്ടി	-10.3306
ാണെന്ന	-10.3313
▁ഭരണകാലത്ത്	-10.3313
ുന്നതിനാൽ	-10.3313
ഭഗവാന	-10.3314
പ്രവേശ	-10.3316
▁ചാർ	-10.3317
▁പരിപാടികൾ	-10.3322
▁അവൾ	-10.3324
▁നൽകുന്നത്	-10.3325
വിട്ടു	-10.3326
പൂർണ്ണ	-10.333
▁എഡ്	-10.3335
ലോഗ	-10.3336
▁ഹോമ	-10.3338
▁ആശയങ്ങൾ	-10.334
വനും	-10.3342
▁കുറഞ്ഞു	-10.3347
ക്കാനായി	-10.3347
▁വിത്ത്	-10.3348
റിന്	-10.335
ിനടുത്തുള്ള	-10.3354
▁ദ്രാവക	-10.3357
▁സ്റ്റേഡിയ	-10.3357
▁ലത്തീൻ	-10.3357
▁ജനപ്രിയ	-10.3357
▁ഉപയോഗങ്ങൾ	-10.3358
▁ഏല	-10.3359
കളിലേക്ക്	-10.336
▁ഹിന്ദുമത	-10.3362
ly	-10.3363
▁2020	-10.3363
മെന്നു	-10.3363
ീശ്വര	-10.3364
നൊ	-10.3364
▁നിലവാര	-10.3368
ങ്കോ	-10.3369
ുന്നതായി	-10.337
▁ശാസന	-10.3372
ns	-10.3374
▁ആർട്ടി	-10.3378
▁തുലാ	-10.3381
▁നേരിട	-10.3385
ങ്കൽ	-10.3388
ക്റ്റ്	-10.339
▁തീരെ	-10.339
▁ബാങ്ക്	-10.339
ഉദാ	-10.3392
▁ജനങ്ങളെ	-10.3394
▁ഉണ്ടായിരുന്നത്	-10.3394
▁ഓട്ട	-10.3399
തിനേക്കാൾ	-10.3399
▁നക്ഷത്രം	-10.3402
▁കീഴ	-10.3404
▁വർദ്ധിച്ചു	-10.3407
▁സമ്മേളനത്തിൽ	-10.3407
▁അളക്ക	-10.341
▁ശ്രമം	-10.341
▁ഉപയോഗിച്ചാണ്	-10.3411
ധാന	-10.3413
▁അവസാനിക്കുന്ന	-10.3413
▁ദ്വീപുകൾ	-10.342
54	-10.3421
▁ആദ്യകാലങ്ങളിൽ	-10.3422
പിടിച്ച	-10.3423
▁എഞ്ചിനീയറ	-10.3423
▁ആണവ	-10.3425
▁യുണൈറ്റഡ്	-10.3426
▁മരുഭൂമി	-10.3426
▁അതേസമയം	-10.3426
▁പ്രകടിപ്പിച്ച	-10.3426
▁നാട്ടുരാജ്യ	-10.3427
▁ദ്വാര	-10.3429
▁ശിവലിംഗ	-10.3429
▁അടിത്തറ	-10.3429
▁ചെറുകഥ	-10.3433
▁ധരിക്ക	-10.3433
▁ഇംഗ്ലീഷിൽ	-10.3435
▁അളവ	-10.3437
▁യുക്തി	-10.344
ോർജ്ജ	-10.3447
-2	-10.3448
▁j	-10.3464
▁ബന്ധിപ്പിക്ക	-10.3469
വർത്ത	-10.3469
ത്തോടൊപ്പം	-10.3471
▁ശരീരത്തിൽ	-10.3472
▁mo	-10.3473
▁പകര	-10.3478
െഴുത്തു	-10.3478
▁അടക്കം	-10.3478
▁എല്ല	-10.3485
▁പുത്രനായ	-10.3486
▁th	-10.3487
▁വിശ്വസിച്ച	-10.3491
▁ഏറ	-10.3491
▁താലൂക്കിൽ	-10.3492
▁ഗെയിം	-10.3495
▁സങ്കേത	-10.3495
▁ഉപനിഷത്ത	-10.3495
▁രുചി	-10.3495
▁നിന്നുമാണ്	-10.3496
▁ഇൻഡ്യ	-10.3497
▁സൃഷ്ടിച്ചു	-10.3497
▁സിങ്	-10.3498
തുകൊണ്ടു	-10.3499
മുണ്ടായി	-10.3499
▁കൃത്യമായ	-10.35
▁പുരുഷന്മാര	-10.3503
ya	-10.3505
കോണ	-10.3507
▁ശാന്തി	-10.3509
▁തുറക്ക	-10.3509
▁ചെയ്	-10.3513
▁വിത്തു	-10.3514
▁നേടിയത്	-10.3516
▁നബിയുടെ	-10.3522
▁വിജ്ഞാന	-10.3524
▁പടിഞ്ഞാറേ	-10.3525
▁കത്തോലിക്ക	-10.3525
▁കേസ്	-10.3527
ക്കാവ	-10.3532
▁ശിവന്റെ	-10.3533
▁വിതരണ	-10.3537
റിയപ്പെട്ടിരുന്ന	-10.354
▁ക്രിസ്	-10.3543
▁മുനി	-10.3545
▁ബ്രാ	-10.3555
മാരിൽ	-10.3559
സ്പർശ	-10.3561
du	-10.3563
▁ഉത്പാദിപ്പിക്ക	-10.3564
▁പുത്രൻ	-10.3566
▁ബുധന	-10.3566
▁1968	-10.3567
▁പിഴ	-10.357
▁അവതരണം	-10.3571
▁വ്യക്തമാക്ക	-10.3573
▁ശാല	-10.3574
ട്രാ	-10.3574
▁മൂത്ര	-10.3575
▁മട്ട	-10.3576
ഡ്ര	-10.3577
ber	-10.3579
▁കാര്യം	-10.358
നുഭവ	-10.3582
▁ഉണ്ടാകും	-10.3583
▁x	-10.3585
▁ഇതിനായി	-10.3585
ാണോ	-10.3586
▁ഉണ്ടായിരിക്കും	-10.3587
▁കുത്തി	-10.3587
ിലുമായി	-10.3589
നാര	-10.359
േറെ	-10.359
ക്കുട	-10.3592
ങ്ങാട്	-10.3593
ശരീര	-10.3596
73	-10.3596
▁പാടി	-10.3606
▁ജീവൻ	-10.3606
▁തുണി	-10.3611
ാകുന്ന	-10.3613
▁കിട്ടുന്ന	-10.3614
▁കാന്തിക	-10.3617
▁ചെയ്തിരുന്ന	-10.3626
▁ഗുരുവായൂര	-10.3632
▁വന്യജീവി	-10.3634
▁ആയിരക്കണക്കിന	-10.3634
▁സംഭാഷണ	-10.3634
▁പ്രകടിപ്പിക്ക	-10.3634
▁1972	-10.3637
▁ഒഴുക്ക	-10.3638
ബ്രാ	-10.3641
േറ്റർ	-10.3643
▁കാർത്തിക	-10.3646
▁20-	-10.3646
▁ഫ്രാൻസ്	-10.3649
ക്കുകയുണ്ടായി	-10.3651
കളാൽ	-10.3653
▁ആസ്ഥാനമായ	-10.3657
▁വസ്തുത	-10.3658
▁വെസ്റ്റ്	-10.366
രൂപത്തിലുള്ള	-10.3662
േക്കാം	-10.3663
▁സവിശേഷതകൾ	-10.3664
▁പുലി	-10.3666
▁അടുപ്പ	-10.3668
▁നീതി	-10.367
▁അമർ	-10.367
▁നോക്കിയ	-10.3671
▁രാജാക്കന്മാർ	-10.3678
▁വിമർശ	-10.3679
5%	-10.368
കളുമാണ്	-10.3683
പോന്നു	-10.3683
ang	-10.3685
ിരുന്നെങ്കിലും	-10.3689
ായതിനാൽ	-10.3692
▁മസ്ജിദ്	-10.3701
32	-10.3702
▁മാധവൻ	-10.3702
▁ആപേക്ഷിക	-10.3704
ുൾപ്പെടെ	-10.3704
▁അടിച്ചമർത്ത	-10.3705
ണമെങ്കിൽ	-10.3705
▁കണ്ടുപിടിക്ക	-10.3705
▁നരസിംഹ	-10.3705
ങ്ങളെപ്പറ്റി	-10.3705
▁ആത്മകഥ	-10.3706
▁തുറമുഖം	-10.3706
▁1945	-10.3707
▁അനുഗ്രഹ	-10.3709
▁ഒഴികെ	-10.371
▁അഭിനയിച്ചു	-10.3711
▁ഭൂമിയിലെ	-10.3713
ദ്വ	-10.3715
▁ca	-10.3716
▁സഭയിൽ	-10.3721
പ്പട്ട	-10.3721
ൊടു	-10.3723
▁പൂരം	-10.3727
0%	-10.3733
പേക്ഷ	-10.3735
പ്രകാശ	-10.3737
▁ഉണ്ടാകുന്നു	-10.3745
ാണിവ	-10.3749
▁ഉടമ	-10.3751
ിക്കുന്നുണ്ട്	-10.3755
സ്ട്രി	-10.3756
ചതുര	-10.3761
▁ഓടി	-10.3763
▁അജ	-10.3764
q	-10.3765
ഇന്ത്യ	-10.3768
ഴുത്ത	-10.3772
▁സഭകൾ	-10.3773
om	-10.3774
ത്തുടർന്ന	-10.3775
▁ടൂറിസ	-10.3776
▁നിരോധിച്ച	-10.3776
▁കരിമ്പ	-10.3776
പാർവ്വതി	-10.3776
▁ദുർഗ്ഗ	-10.3777
▁അഡ്	-10.3778
▁വിഭജന	-10.3783
▁ചന്ദന	-10.3785
▁തലവന	-10.3786
▁ബൊ	-10.3791
▁വർഷങ്ങളിൽ	-10.3796
▁ശര	-10.38
▁ക്യാമ്പ	-10.38
ുകൂടി	-10.3806
ഹെ	-10.3807
▁ഗാനങ്ങൾ	-10.3808
▁ഖാൻ	-10.3808
▁ആരംഭിക്ക	-10.3811
▁ഏഴ	-10.3811
▁നഷ്ടപ്പെട	-10.3814
ത്തിലധികം	-10.3814
വകുപ്പ	-10.3817
▁ടെസ്റ്റ	-10.3824
സ്ഥിതി	-10.3824
▁പാടില്ല	-10.3826
▁ഭൂരിപക്ഷം	-10.3829
ചര്യ	-10.3832
▁ഒപ്പു	-10.3834
▁അറിയിച്ചു	-10.3838
കൊടുത്തു	-10.3839
▁കടന്ന	-10.3842
▁ഭരണകൂടം	-10.3842
▁ആശ്രയിക്ക	-10.3847
▁ശബരിമല	-10.3847
▁ദാരിദ്ര്യ	-10.3847
▁പാണ്ഡ്യ	-10.3847
ക്കെതിരേ	-10.3847
▁ചാൾസ്	-10.3847
▁സംഘടിപ്പിച്ച	-10.3847
▁പൂർത്തിയായ	-10.3847
▁എത്തിച്ചേർന്ന	-10.3847
▁ഉദ്യാന	-10.3849
▁1976	-10.3849
▁1946	-10.385
വാൾ	-10.3853
▁ജീവിച്ച	-10.3855
▁തട്ടി	-10.3856
▁കവിതകൾ	-10.3856
▁പോകുന്നു	-10.3867
മുണ്ട	-10.387
നെന്ന	-10.3881
▁ഗ്രന്ഥമായ	-10.3881
▁പിറ	-10.3881
▁കണ്ടുവരുന്നു	-10.3882
▁കൊക്ക	-10.3883
▁കാൾ	-10.3884
വൈദ്യ	-10.3887
▁വഹിക്ക	-10.3888
▁ഏറ്റെടുത്തു	-10.3891
ിരിയ്ക്കുന്നു	-10.3892
▁രാജാക്കന്മാര	-10.3898
▁നാലമ്പല	-10.3898
രേയും	-10.3899
▁ദൂരെ	-10.3899
▁അയക്ക	-10.3905
ലൻഡ്	-10.3912
▁കൃതികളിൽ	-10.3913
▁15-	-10.3914
▁സഹോദരൻ	-10.3916
▁പോർച്ചുഗീസ്	-10.3919
▁അക്ബർ	-10.3919
▁മുഴുവനും	-10.3919
▁നൂറ്റാണ്ട്	-10.3924
ച്ചർ	-10.3925
▁അടയാള	-10.3927
▁സംഘടനയുടെ	-10.3928
▁കൂടിയാട്ട	-10.3928
▁സഞ്ചരിക്കുന്ന	-10.3936
▁വാൾ	-10.3937
▁തിരഞ്ഞെടുപ്പ്	-10.3938
35	-10.3938
▁ഉല	-10.3941
▁ബോംബ	-10.3941
മിനി	-10.3942
മായിരുന്നില്ല	-10.3946
▁കണക്കാക്കുന്നത്	-10.3949
▁ചോദ്യ	-10.3958
▁സീറ്റ	-10.3958
▁മറാഠി	-10.3959
▁ബോസ്	-10.3961
▁രൂപീകരിച്ച	-10.3965
▁ആറാട്ട	-10.3967
▁പ്രസാദ	-10.397
ണ്ടർ	-10.3973
▁നാട്ടിൽ	-10.3977
ീകരിച്ചു	-10.3978
▁നാളിൽ	-10.3978
▁അറിഞ്ഞ	-10.398
▁ലോകത്തിൽ	-10.398
▁ഖലീഫ	-10.3991
▁ദുരന്ത	-10.3991
▁രാജ്ഞി	-10.3991
▁ഇന്ധന	-10.3991
▁ജയിലിൽ	-10.3992
▁തകർക്ക	-10.3994
▁1966	-10.3995
▁എഞ്ചിന	-10.3995
▁ഒട്ടക	-10.3999
പ്പെടും	-10.4001
▁അടങ്ങുന്ന	-10.4009
ap	-10.401
ുകളിലൂടെ	-10.4012
▁സ്റ്റീവ	-10.4023
കിട്ട	-10.4025
ാവൂ	-10.4028
▁പ്രവാഹ	-10.4028
ചെയ്തു	-10.4032
▁വാലി	-10.4033
▁സിവിൽ	-10.4038
ച്ചിറ	-10.404
▁കൈവശ	-10.404
▁വിത്തുകൾ	-10.4044
യോട	-10.4045
കരിക്കുന്ന	-10.405
ച്ചില	-10.4052
tri	-10.4057
▁പൂർത്തിയാക്ക	-10.4062
▁ചൂണ്ടിക്കാണിക്ക	-10.4064
▁ആസ്പദമാക്കി	-10.4064
▁ഗുജറാത്ത്	-10.4064
▁പണ്ട	-10.4065
▁ഭാരതത്തിലെ	-10.4065
▁നിർമ്മിച്ചത്	-10.4065
കീഴ	-10.4065
▁1967	-10.4067
▁1978	-10.4067
▁ഇനങ്ങൾ	-10.4068
▁പെടുന്ന	-10.4068
▁സർവകലാശാലയിൽ	-10.4069
വസ്തുക്കള	-10.4072
▁ഏകദിന	-10.4074
▁പരിഹാര	-10.4074
▁വൈസ്	-10.4081
▁വലം	-10.4084
and	-10.4092
▁കാണിക്ക	-10.4092
▁ശങ്കരൻ	-10.4101
▁ഓൾ	-10.4104
ിരിക്കാം	-10.4111
സമൃദ്ധ	-10.4111
▁മോഹൻ	-10.4112
▁ഗ്രീസ	-10.4116
▁മുടി	-10.4117
എന്നാൽ	-10.4117
ച്ചെ	-10.4118
▁നക്ഷത്രങ്ങളുടെ	-10.4125
വംശജര	-10.4126
▁ബിൽ	-10.4128
യോടൊപ്പം	-10.4128
സ്റ്റൺ	-10.413
▁ബന്ധപ്പെട്ട്	-10.4132
കീർത്ത	-10.4133
▁ഭീമൻ	-10.4135
▁ജൈന	-10.4137
▁റോബർട്ട്	-10.4138
▁സന്ദർശന	-10.4138
▁ഖുർആൻ	-10.4138
▁സാദ്ധ്യത	-10.4138
▁ചുവപ്പു	-10.4138
▁സ്ഥാപിച്ചത്	-10.4138
▁സ്തുതി	-10.4139
▁ജയിച്ച	-10.4139
▁സാധിച്ചു	-10.4139
▁പോർട്ട	-10.4141
▁കിടന്ന	-10.4144
▁ക്രൂര	-10.4145
▁ഉറക്ക	-10.4145
നാഥൻ	-10.4153
മിത്ര	-10.4153
▁വലിപ്പമുള്ള	-10.4154
മുട്ട	-10.4159
വെയ്	-10.4164
▁അയച്ച	-10.4165
ts	-10.4167
▁പ്രോട്ടോ	-10.4173
▁വ്യാപിച്ച	-10.4176
▁ബാലി	-10.4179
▁ആദിമ	-10.4183
ജീ	-10.4187
ീഷ്യ	-10.4195
▁കവാട	-10.4198
▁പങ്കെടുത്തു	-10.4201
ുകൊണ്ടാണ്	-10.4202
ദാസ്	-10.4202
▁കത്തി	-10.4206
▁കൊടുങ്ങല്ലൂര	-10.4212
▁ബാംഗ്ലൂർ	-10.4212
▁സൗന്ദര്യ	-10.4212
thumb	-10.4212
▁പ്രഭാഷണ	-10.4212
സമ്മർദ്ദ	-10.4212
▁പ്രതിസന്ധി	-10.4213
▁തമ്പുരാൻ	-10.4213
ja	-10.4213
▁നിരൂപക	-10.4213
▁ഔഷധയോഗ്യ	-10.4214
▁1954	-10.4214
▁1958	-10.4214
▁വിശാലമായ	-10.4214
▁ഭക്ഷിക്ക	-10.4215
▁തെരുവ	-10.4217
▁സ്മരണ	-10.4219
▁1920	-10.422
▁തീരപ്രദേശ	-10.4222
▁മനസ്സിലാക്കിയ	-10.423
▁ഗ്രാമമാണ്	-10.423
▁നാലാമത്തെ	-10.4231
▁ജീവിതത്തിൽ	-10.4233
ില്ലെന്നും	-10.4235
▁സേനാ	-10.4237
▁രചനകൾ	-10.4237
▁സവിശേഷ	-10.424
ുകൾക്കും	-10.424
▁ഗ്രാം	-10.4242
▁ഗൃഹ	-10.4242
▁സദ്യ	-10.4244
▁വെളി	-10.425
▁വെള്ളത്തിൽ	-10.4252
നൂറ്റ	-10.4253
▁ആത്മാവ	-10.4258
▁രാവണന	-10.4261
▁അശ്വ	-10.4262
ൊന്നുമില്ല	-10.4263
പ്രകൃതി	-10.4264
▁പ്രത്യേകതയാണ്	-10.4265
യെന്നും	-10.4265
▁മറു	-10.4266
▁പുറത്തിറക്കിയ	-10.4267
▁വിശ്വസിക്കുന്ന	-10.427
ന്മാരിൽ	-10.427
▁സന്ധി	-10.4278
ke	-10.428
ക്കിടക്ക	-10.4282
സെന്റ	-10.4285
▁അഭിഷേക	-10.4286
▁കാസർഗോഡ്	-10.4286
▁ഹൈദരാബാദ	-10.4286
▁പഞ്ചാബ്	-10.4286
▁ഖുർആനില	-10.4286
▁സമർപ്പിക്ക	-10.4287
മാറ്റി	-10.4287
േഷ്	-10.429
▁വിശ്വസിച്ചു	-10.4293
▁പ്രതിപക്ഷ	-10.4293
ങ്ങളെക്കുറിച്ച്	-10.4296
പാട്ട	-10.4297
കൊണ്ടിരുന്ന	-10.4297
▁മോദി	-10.43
▁നിർദ്ദേശിച്ച	-10.4302
പ്പൊടി	-10.4302
▁വിവരണം	-10.4305
കാരണം	-10.4306
▁മുന്നേ	-10.431
ില്ലെന്ന്	-10.4313
വടക്ക	-10.4319
ലൊ	-10.432
▁കെട്ടിയ	-10.432
▁33	-10.4321
▁la	-10.4323
▁നാൾ	-10.4325
▁ടു	-10.4326
ശിവ	-10.4327
04	-10.4328
gu	-10.433
▁അനാ	-10.4331
ദ്ദേഹം	-10.4333
▁വിളവ	-10.4339
വിഷ	-10.4343
പറ്റി	-10.4347
fe	-10.4347
▁കാൻ	-10.4347
▁കഷ്ട	-10.4349
▁ദ്വീപുകള	-10.4358
ചന്ദ	-10.4361
▁അഴിമതി	-10.4362
▁ഉടലെടുത്ത	-10.4362
▁പച്ചക്കറി	-10.4362
▁പരിഗണിച്ച	-10.4362
വുമായിരുന്നു	-10.4362
▁സ്രോതസ്സ	-10.4363
▁ആശയവിനിമയ	-10.4363
വാട്ട	-10.4365
▁രക്ഷിക്ക	-10.4365
▁ചേർന്നാണ്	-10.4367
bi	-10.4368
▁മിശ്രിത	-10.4375
▁ഏഴാം	-10.4376
▁ഋ	-10.4377
▁r	-10.4377
ങ്ങളുമാണ്	-10.4379
▁വിശ്രമ	-10.438
▁നല്കിയ	-10.4388
നിധി	-10.4389
തനുസരിച്ച്	-10.439
▁പേർഷ്യ	-10.4396
ക്ഷര	-10.4397
വേല	-10.4403
മുണ്ടാകും	-10.4403
▁ടൺ	-10.4407
▁തുടർന്നുള്ള	-10.4419
▁കിടക്കുന്നു	-10.442
കൊണ്ടിരുന്നു	-10.4421
▁ദ്രവ	-10.4421
▁പരിഷ്	-10.4422
ങ്ങാടി	-10.4423
▁വിവരിച്ച	-10.4426
▁കനത്ത	-10.4427
▁ലേഖനങ്ങൾ	-10.4432
ിനുള്ളിൽ	-10.4434
▁നെപോളിയൻ	-10.4437
▁പര്യടന	-10.4437
▁പുറപ്പെടുവിക്ക	-10.4437
▁ബാംഗ്ലൂര	-10.4437
▁സൗഹൃദ	-10.4437
▁നദീതട	-10.4438
റിംഗ്	-10.4439
ath	-10.4439
▁1955	-10.444
▁2017	-10.4441
▁പ്രവചന	-10.4443
▁രൂപപ്പെട്ട	-10.4447
▁ദർശനമായി	-10.4448
▁പെടുന്നു	-10.4454
▁വട	-10.4458
▁മാത്രമായിരുന്നു	-10.4459
▁സ്വഭാവം	-10.4459
▁ഉപ്പു	-10.4461
▁അമൃത	-10.4464
വേളയിൽ	-10.4466
മാക്കുന്നു	-10.4468
ഭാഗവും	-10.4471
▁ചെലുത്ത	-10.4476
വ്യാപാര	-10.4482
സംസ്കൃത	-10.4482
▁സൈറ്റ	-10.4483
▁ശ്ര	-10.4488
ate	-10.4493
▁ഭവ	-10.4493
മാണെങ്കിലും	-10.4496
▁ആനകൾ	-10.4497
▁കടക്ക	-10.4499
▁ചെമ്മ	-10.45
sc	-10.45
▁1-	-10.4501
▁തീരുമാനിച്ച	-10.4506
▁അഭിപ്രായപ്പെട	-10.4508
▁പുലർത്തുന്ന	-10.4513
▁സൂനഹദോസ	-10.4514
▁വിശദീകരണ	-10.4514
ുദ്ദീൻ	-10.4514
▁തിളക്ക	-10.4514
▁ഇലക്ട്രോണിക്	-10.4514
▁ക്ലബ്ബ	-10.4517
▁ഗ്രീക്കു	-10.4518
▁പകർത്ത	-10.4519
▁പ്രസവ	-10.4519
▁സംഗമ	-10.4522
ബലി	-10.4524
യോൺ	-10.4525
മാവുകയും	-10.4532
▁ചടങ്ങ്	-10.4532
▁പേരെ	-10.4533
▁ഇവിടെയുണ്ട്	-10.4538
▁രസം	-10.454
▁ഹാജി	-10.4542
ിറങ്ങി	-10.4543
ുമ്പോഴ	-10.4544
▁അളവു	-10.4545
ങ്ങളിലൊന്നായ	-10.4546
▁ചിത്രത്തിന്റെ	-10.4546
ുടെയും	-10.4547
▁പേരിട്ട	-10.4555
അമേരിക്ക	-10.4559
ഗൃഹ	-10.456
▁എന്നൊക്കെ	-10.4563
▁ബൗ	-10.4569
ദശ	-10.457
▁മനസ്സിലാക്കി	-10.4572
▁കോഡ്	-10.4574
യിലോ	-10.4577
യിലായി	-10.4581
ല്ലുകൾ	-10.4583
▁തീർത്ഥാടന	-10.4591
▁പരമാവധി	-10.4591
▁ജ്യേഷ്ഠ	-10.4591
▁ചാക്യാർ	-10.4591
▁മംഗള	-10.4591
▁കൊടുമുടി	-10.4591
▁തൊട്ടടുത്ത	-10.4593
▁1952	-10.4593
▁തെക്കോട്ട	-10.4593
▁കാവേരി	-10.4594
വർക്കും	-10.4594
▁രൂപകല്പന	-10.4595
▁മെട്രോ	-10.4596
▁മലനിരകള	-10.4598
▁ഹാസ്യ	-10.4599
ദര	-10.46
▁ചുണ്ട	-10.4601
▁ആൽബ	-10.4602
▁കുറിപ്പുകൾ	-10.4602
▁മീൻ	-10.4604
▁ഒന്നായി	-10.4604
▁ഭദ്ര	-10.4607
രുള	-10.4613
ുകയാണെങ്കിൽ	-10.4614
പട്ടണ	-10.4619
▁അപൂർവ	-10.4619
▁ബാധിക്ക	-10.4619
▁ചിത്രകല	-10.4621
▁കോഴി	-10.4625
▁ശതമാനവും	-10.4625
ീയമായ	-10.4626
▁പെരിയാറ	-10.4627
▁പിതാവിന്റെ	-10.4628
ക്കായുള്ള	-10.4637
31	-10.4638
കിഴക്ക	-10.4641
tra	-10.4644
▁പക്ഷികൾ	-10.4649
ചുറ്റ	-10.4652
▁മരിക്ക	-10.4654
ത്തോടെയാണ്	-10.4661
തുകൊണ്ടാണ്	-10.4662
▁ഏത്	-10.4664
▁വേലി	-10.4667
▁ഒട്ടനവധി	-10.4668
▁റെക്കോർഡ	-10.4668
▁ഹൈസ്കൂൾ	-10.4668
▁വികസിപ്പിക്ക	-10.4668
▁അദ്ധ്യക്ഷ	-10.4668
▁ഇന്റർ	-10.4668
▁വേട്ടയാട	-10.4669
ക്യൂ	-10.467
all	-10.4671
▁മുസ്ലീങ്ങളുടെ	-10.4671
▁ഡോളർ	-10.4672
ഹേ	-10.4673
▁രൂപീകരിക്ക	-10.4674
▁അമ്മയുടെ	-10.4675
ാധ്യ	-10.4677
ck	-10.4679
▁താരതമ്യ	-10.4681
▁ഏർപ്പെട്ട	-10.4684
▁പുറത്തിറങ്ങി	-10.4685
▁മൂപ്പ	-10.4692
പ്പാല	-10.4695
▁ജീവിക്ക	-10.4697
യിലെത്തിയ	-10.4701
▁യോനി	-10.4701
▁അച്ഛന	-10.4701
ഷെ	-10.4703
ഗ്രി	-10.4704
ത്തുനിന്ന്	-10.4704
ദ്വീപ	-10.471
▁ബാർ	-10.4717
▁ഭൗമ	-10.4718
പ്പാറ	-10.4718
െടുത്തത്	-10.4718
ഷിക	-10.4722
മാറ	-10.4728
ിനകത്ത	-10.4729
▁പുൽ	-10.4741
▁എയ്	-10.4744
▁ചന്ദ്രന	-10.4746
▁ഡാർവിൻ	-10.4746
▁പികാസോ	-10.4746
▁പുരാവസ്തു	-10.4747
▁1983	-10.4749
▁മറ്റേ	-10.4749
▁1988	-10.475
▁1940	-10.4751
ർഥം	-10.4752
▁പതിനെട്ടാം	-10.4753
▁രാജകുടുംബ	-10.4755
▁ഭൂപ്രദേശ	-10.4757
▁സൂത്ര	-10.4758
ഗ്ഗ	-10.4764
▁നായ്ക്ക	-10.4768
ഴുക്ക	-10.4769
▁സർവീസ്	-10.477
▁മണ്ഡപ	-10.4772
▁അകത്ത	-10.4772
വകാശ	-10.4781
▁ഓഫീസ്	-10.4784
▁ശക്തമായി	-10.4785
▁ആരംഭിക്കുന്നത്	-10.4788
tor	-10.4794
▁മാറുകയും	-10.48
▁കൈയ്യ	-10.4806
▁ചന്ദ്രൻ	-10.4813
▁ആവിഷ്	-10.4813
ബെർ	-10.4814
▁ക്ഷേത്രമാണ്	-10.4815
▁ആവശ്യപ്പെട്ട	-10.4816
ധ്വ	-10.4823
▁ഗുരുത്വാകർഷണ	-10.4825
▁ശവകുടീര	-10.4825
▁ഏറ്റുമുട്ട	-10.4825
▁താത്പര്യ	-10.4825
▁ഗ്രാമീണ	-10.4825
▁സങ്കീർണ്ണ	-10.4825
▁മൈതാന	-10.4825
▁ഭാഷയാണ്	-10.4826
▁നരേന്ദ്ര	-10.4826
▁ചിത്രീകരിച്ച	-10.4828
▁ഭാരതപ്പുഴ	-10.483
▁36	-10.483
െടുക്കാൻ	-10.4833
bu	-10.4839
▁ഫീ	-10.484
▁പുസ്തകത്തിൽ	-10.484
▁നല്ലൊരു	-10.4844
▁ഉത്ഭവം	-10.4844
ിരുന്നതായി	-10.4845
▁സീസണിൽ	-10.4848
▁മരണമടഞ്ഞു	-10.4849
▁എട	-10.4849
▁വീട്	-10.4855
▁പേരിന്റെ	-10.4856
▁1960	-10.4857
▁വസ്തു	-10.4862
▁ജയിലില	-10.4866
▁പ്രസിഡന്റായി	-10.4866
▁രോഗി	-10.4867
പൈ	-10.4874
▁തരത്തിൽ	-10.4875
പടിഞ്ഞാറ	-10.4875
പരിപാടി	-10.4876
ബ്രഹ്മ	-10.4876
▁കഴിവ്	-10.4881
ദർശി	-10.4885
ran	-10.489
പള്ളി	-10.4895
▁വേട്ട	-10.4898
ത്തിൻ്റെ	-10.4899
▁ശാസ്താ	-10.4902
▁ഋഗ്വേദ	-10.4904
▁തേനീച്ച	-10.4904
▁തൃശ്ശൂര	-10.4904
▁സിന്ധു	-10.4905
▁ഡോക്ടറ	-10.4905
▁സൂപ്പർനോവ	-10.4905
▁ധ്യാന	-10.4905
ില്ലായ്മ	-10.4906
▁പത്രപ്രവർത്തക	-10.4907
▁നാടകങ്ങൾ	-10.4907
▁ഡോളറ	-10.4909
▁ശൈവ	-10.491
io	-10.491
▁വർഷത്തോളം	-10.4913
▁വേർതിരിക്ക	-10.4915
ുമ്പോഴാണ്	-10.4922
23	-10.4922
▁കെട്ടു	-10.4925
▁ആക്രമിച്ചു	-10.4926
▁പിന്തുടരുന്ന	-10.493
▁മേഖലകളില	-10.4931
▁പ്രാകൃത	-10.494
27	-10.4941
▁ഭാഗമായിരുന്നു	-10.4942
▁വീടുകള	-10.4942
▁വലയ	-10.4953
▁എപ്പോഴു	-10.4953
▁നിലനിന്നിരുന്നു	-10.4955
▁കണക്കുകൾ	-10.4956
▁പ്രകടനം	-10.496
▁പൂക്കള	-10.4961
വരുത്ത	-10.4962
▁തന്ന	-10.4963
▁ആഴ്ച	-10.4965
▁മോഹ	-10.4965
500	-10.4965
വിവര	-10.4966
▁സ്ഥലമാണ്	-10.4966
▁പൊതുജന	-10.4967
▁തേട	-10.4968
പ്രവാഹ	-10.4968
ത്തേക്കാൾ	-10.4969
നുമാണ്	-10.4976
▁സൂറ	-10.4984
▁സൂക്തങ്ങൾ	-10.4984
▁ഡെൻമാർക്ക	-10.4984
സമുച്ചയ	-10.4985
▁ധാന്യ	-10.4985
▁വിശദമായ	-10.4987
ദീപ	-10.4989
▁രൂപവത്കരണ	-10.4989
▁നിൽക്കുന്നു	-10.499
▁ചടങ്ങുകൾ	-10.4993
▁ഫൈനലിൽ	-10.4995
വാള	-10.4996
▁ഗ്രന്ഥങ്ങൾ	-10.4998
ക്കാരാണ്	-10.4999
പ്രീതി	-10.4999
ുന്നതിനെ	-10.4999
gra	-10.501
▁2006-	-10.5017
പ്രധാനമായ	-10.5018
▁അടക്ക	-10.502
യാണെന്നും	-10.502
▁ഓട്ടോ	-10.502
കാരണ	-10.5024
▁പ്രദേശങ്ങളും	-10.5028
▁ആലുവ	-10.5029
▁ദൈവിക	-10.503
▁പ്രസ്	-10.5031
ബറി	-10.5036
▁കയറ്റി	-10.5037
വൃക്ഷ	-10.5037
▁പട്ടണത്തിൽ	-10.5037
ോപരിതല	-10.5045
വാസികള	-10.5046
▁അംഗമായ	-10.505
▁പേരുകളിൽ	-10.505
വിദ്യാഭ്യാസ	-10.505
▁തീവ്രവാദ	-10.5052
▁തെലുങ്ക്	-10.5055
ഗന്ധ	-10.5056
▁വ്യക്തിത്വ	-10.5059
▁കോള	-10.5061
ദൂര	-10.5064
കണ്ണ	-10.5064
▁ലൈബ്രറി	-10.5065
▁10-	-10.5065
▁വ്യക്ത	-10.5067
ശോഭ	-10.5073
▁തുടങ്ങുന്നത്	-10.5073
▁വീര്യം	-10.5073
▁ജനതാ	-10.5076
ിലുമുള്ള	-10.5076
▁ദൈവത്തിന്റെ	-10.5078
▁സൂര്യനിൽ	-10.5081
▁ഉൾപ്പെടെയുള്ള	-10.5082
▁രീതിയിലുള്ള	-10.5084
ment	-10.5085
▁ജന്തു	-10.5086
▁ആചാര്യ	-10.509
കല്പന	-10.509
▁സെമി	-10.509
▁വിഷു	-10.5091
▁മാതാവ്	-10.5096
3)	-10.5096
▁കരാർ	-10.5102
▁ചേരുന്ന	-10.5107
പെട	-10.5108
▁ആയിരിക്ക	-10.5108
▁താമസിച്ചിരുന്ന	-10.5109
▁കുറിക്ക	-10.5112
▁ജോസ്	-10.5116
ium	-10.5118
▁അറിയപ്പെട	-10.5119
▁ആവശ്യങ്ങൾക്ക	-10.5127
ങ്ങളിലേക്കും	-10.5127
തുറ	-10.513
▁പദത്തിൽ	-10.5133
▁ദീർഘകാല	-10.5134
▁തിരക്ക	-10.5135
▁1990-	-10.5138
▁പതിനെട്ട	-10.514
▁ചുവടു	-10.5142
▁എന്നിവരെ	-10.5146
▁ചങ്ങനാശ്ശേരി	-10.5146
▁അട്ടിമറി	-10.5146
▁ഉരുത്തിരിഞ്ഞ	-10.5146
▁മൊബൈൽ	-10.5146
▁നിയോഗിച്ച	-10.5147
▁പെരിയാർ	-10.5148
▁1974	-10.5149
▁വിളിക്കുന്ന	-10.5151
▁തൊഴിലാളികൾ	-10.5151
▁മനുഷ്യാവകാശ	-10.5151
▁തകർത്ത	-10.5152
▁ഭിന്ന	-10.5153
▁ഗ്രൂപ്പ്	-10.5153
ദിനം	-10.5154
ത്തിലേയ്ക്ക്	-10.5164
ുന്നതിന്റെ	-10.5165
▁ഇദ്ദേഹത്തെ	-10.5165
നൂറ	-10.5169
▁പ്രഖ്യാപന	-10.5175
പരിമിത	-10.5185
സ്കി	-10.5186
▁തുടർച്ചയായ	-10.5189
പ്രയോഗ	-10.5189
▁16-	-10.519
▁രീതികൾ	-10.5192
▁പുല	-10.5192
തമ്പുരാ	-10.5192
പോരുന്ന	-10.5194
▁ദുഷ്	-10.5195
മണ്ഡപ	-10.5202
▁സദ	-10.5206
▁പതന	-10.5215
▁കുടുംബത്തിലെ	-10.5217
▁പതിനാറ	-10.5221
▁താഴെപ്പറയുന്ന	-10.5228
▁തിമിംഗില	-10.5228
▁താൽപര്യ	-10.5228
▁തകർന്ന	-10.5229
▁മൈക്രോ	-10.5229
▁ട്യൂ	-10.5229
▁കണ്ടുമുട്ട	-10.523
▁സൂര്യനെ	-10.523
▁ചിത്രശലഭ	-10.5231
പരിഷ്കരണ	-10.5233
▁പരക്കെ	-10.5234
▁ഇരട്ടി	-10.5234
കാവ്	-10.5235
ist	-10.5237
യുമുള്ള	-10.5238
സ്മൃതി	-10.5239
▁പത്താം	-10.5244
▁വയസ്സു	-10.5244
▁കലാകാരന	-10.5245
▁പിതൃ	-10.5246
▁കടലിൽ	-10.525
▁അംബ	-10.5255
ചാല	-10.5256
ബർഗ്	-10.5257
▁ദ്വി	-10.5261
തുമൂലം	-10.5261
▁ഇവരിൽ	-10.5262
▁നൈട്ര	-10.5268
▁ഗന്ധ	-10.5268
ാകാം	-10.5269
▁പിന്നില	-10.527
▁ക്രിസ്ത്യാനികൾ	-10.5275
▁കുരുമുളക്	-10.5279
▁പ്രദേശത്തു	-10.5279
ത്തിലേക്കുള്ള	-10.528
▁തീരത്ത്	-10.5282
പ്പായ	-10.5282
▁മലബാറിലെ	-10.5283
▁വലിയൊരു	-10.5284
▁പരാമർശിച്ച	-10.5284
മൃഗ	-10.5286
ഓളം	-10.5286
her	-10.5287
▁വ്വ	-10.5288
രംഗത്തെ	-10.5288
▁ആധാര	-10.5288
▁ദോഷ	-10.5291
ക്കുകയായിരുന്നു	-10.5295
കൊടുത്ത	-10.5301
▁നടപടികൾ	-10.5301
ത്തിലായി	-10.5303
▁ബദ	-10.5305
▁കന്യാകുമാരി	-10.5311
▁ഗവണ്മെന്റ്	-10.5311
▁സന്ദർശക	-10.5311
▁പൈത്തൺ	-10.5311
▁റബ്ബർ	-10.5311
വൽക്കരണ	-10.5311
ബദ്ധ	-10.5311
▁വള്ളി	-10.5312
▁വിപുലമായ	-10.5312
രീതിയിൽ	-10.5314
▁സാദൃശ്യ	-10.5315
▁തെളിഞ്ഞ	-10.5316
ഗൺ	-10.5318
േണ്ടതാണ്	-10.5319
▁സ്വയംഭരണ	-10.5319
▁വ്യക്തമായി	-10.5321
▁തവിട്ടു	-10.5322
▁രംഗത്തെ	-10.5324
▁റാവു	-10.5324
▁വളരുന്നു	-10.5329
▁മേനോൻ	-10.5329
ഫ്ലൂറ	-10.5331
▁വിഷമ	-10.5332
▁പൂജ്യ	-10.5336
വുമുള്ള	-10.5338
▁മക്കയിൽ	-10.5349
െതിരെ	-10.5351
▁സംസ്കരിച്ച	-10.5353
വാതക	-10.5355
മാക്കുന്ന	-10.5356
▁ഗാന്ധിയുടെ	-10.5362
▁പൊട്ടി	-10.5363
▁പ്രതിമ	-10.5365
▁അധികാരത്തിൽ	-10.5365
പ്രശ്ന	-10.5369
ായിത്തീര	-10.5376
▁പുരാതനമായ	-10.5377
und	-10.5382
▁ആധിപത്യം	-10.5387
സാന	-10.539
▁ശവ	-10.539
▁വരണ്ട	-10.5391
▁ശ്രദ്ധേയ	-10.5392
▁കാലാവധി	-10.5394
▁വിമോചന	-10.5394
▁ഹൈസ്കൂള	-10.5394
▁ട്രോഫി	-10.5394
▁ജർമൻ	-10.5394
▁വിൻഡോസ	-10.5395
▁അലക്സാ	-10.5395
സ്തംഭ	-10.5396
▁ശംഖ	-10.5396
▁1959	-10.5397
▁ആണെന്നു	-10.54
▁ലാമി	-10.5401
▁കളരി	-10.5401
യാണെന്ന	-10.5403
▁ലൂയി	-10.5403
▁സമഗ്ര	-10.5405
ബിന്ദു	-10.5405
▁കാലങ്ങളിൽ	-10.5412
മുറി	-10.5417
കോശ	-10.5417
▁ro	-10.5417
▁ലങ്ക	-10.542
▁കളിക്കുന്ന	-10.542
ക്കുശേഷം	-10.542
▁ഉഷ	-10.5423
ുമെങ്കിലും	-10.5423
▁മിഗ്	-10.5424
▁കൊടു	-10.5426
▁പ്രചാരണ	-10.5433
മേറ്റ	-10.5435
pla	-10.5439
▁ധാര	-10.5441
▁ആശുപത്രിയിൽ	-10.5442
▁നടത്തിയിരുന്നു	-10.5444
▁ലക്ഷ്മി	-10.5446
ശ്രദ്ധ	-10.5453
പ്രാധാന്യ	-10.5454
▁അംഗീകാരം	-10.5455
▁പ്രദേശങ്ങളിലും	-10.5455
മുമ്പ്	-10.5455
▁ബാധിക്കുന്ന	-10.5462
ാനായിരുന്നു	-10.5464
ിരിക്കെ	-10.5467
▁വിധത്തിൽ	-10.5467
സദസ്സ	-10.5471
ശേഷമുള്ള	-10.5471
ുടനീളം	-10.5478
▁ഉഷ്ണമേഖലാ	-10.5478
▁ശാരീരിക	-10.5478
▁ആന്ധ്ര	-10.5478
▁നിർവഹിച്ച	-10.5478
▁വിശിഷ്ട	-10.5478
▁സസ്തനി	-10.5478
▁തെരഞ്ഞെടുപ്പിൽ	-10.5479
▁ഉറച്ച	-10.5479
▁ഏറ്റെടുക്ക	-10.5479
▁സിലിക്ക	-10.5479
▁ഒന്നായ	-10.5486
▁തെളിവുകള	-10.5491
കുടുംബത്ത	-10.5492
▁നവീകരണ	-10.5494
▁ക്രിസ്റ്റ	-10.5495
pi	-10.5496
▁സങ്കര	-10.5498
▁എടുക്കുന്ന	-10.5498
▁കൂടുതലാണ്	-10.5499
▁നയിച്ചു	-10.5503
▁ഘട്ടത്തിൽ	-10.5507
▁ഒന്നിച്ച	-10.5515
▁ഇറാന	-10.5523
ിപ്പിക്കാൻ	-10.5523
▁എഴുതിയത്	-10.5524
ical	-10.5529
ിനേക്കാൾ	-10.5532
▁നാസി	-10.5533
▁to	-10.5533
▁മൈക്ക	-10.5535
▁ബോട്ട	-10.5535
cu	-10.5536
സൃഷ്ടി	-10.5539
സമ്പ്രദായ	-10.5539
ക്കഴിഞ്ഞ	-10.5541
▁വർഷങ്ങൾക്ക്	-10.5541
▁ഉദ്ദേശിച്ച	-10.5543
▁പശ്ചാത്തലം	-10.5546
മുനിസിപ്പാലിറ്റി	-10.5563
▁കൗൺസിൽ	-10.5563
▁തീർത്ഥാടക	-10.5563
▁ബൃഹ	-10.5563
▁ഹൈക്കോടതി	-10.5563
▁മഹാസമുദ്ര	-10.5563
▁മാനദണ്ഡ	-10.5563
▁കിലോഗ്രാം	-10.5563
▁തണുത്ത	-10.5563
▁വാക്കു	-10.5563
▁വാസ്തുവിദ്യ	-10.5563
ജ്ഞനായ	-10.5564
▁കരസ്ഥമാക്കി	-10.5567
▁മലേഷ്യ	-10.557
nu	-10.5572
ടങ്ങുന്ന	-10.5575
▁രംഗത്തു	-10.5576
▁ഭാഗവും	-10.5577
▁ശത്രുക്കള	-10.5578
▁നിറത്തിലുള്ള	-10.5585
▁ജീവിതത്തിന്റെ	-10.559
യനുസരിച്ച്	-10.5592
▁ഓളം	-10.5592
▁ഡൊ	-10.56
▁തെക്കുപടിഞ്ഞാറ	-10.5601
▁മനസ്സിലാക്കാൻ	-10.5603
ിരിക്കുമ്പോൾ	-10.5607
▁സുരക്ഷാ	-10.5615
▁അദ്ധ്യായമാണ്	-10.562
വസ്തുക്കൾ	-10.5626
▁ആക്രമിച്ച	-10.5627
ശാസ്ത്രജ്ഞന	-10.5629
▁കന്നി	-10.563
ഗോപാല	-10.5631
▁ഇന്തോ	-10.5637
കളിലുള്ള	-10.5637
▁കുംഭ	-10.5637
▁ട്രസ്റ്റ	-10.5637
▁രാജ്യങ്ങളുടെ	-10.5638
യേക്കാൾ	-10.5645
▁നിയന്ത്രണത്തില	-10.5646
▁ഇറ്റാലിയൻ	-10.5648
▁ഉപഭൂഖണ്ഡത്ത	-10.5648
▁നാടുവാഴി	-10.5648
▁പ്രക്ഷേപണ	-10.5648
▁സായുധ	-10.5649
▁തന്മൂലം	-10.5649
▁പിക്കാസോ	-10.5649
▁മനോരമ	-10.5649
▁നിവേദ്യ	-10.5649
▁സങ്കൽപ്പ	-10.5649
▁ആരാധക	-10.5651
▁ഡിസ്	-10.5651
കൃഷ്ട	-10.5652
▁ഗുപ്ത	-10.5653
▁അവയവ	-10.5657
▁ഏർപ്പെട	-10.5662
▁മാസ്റ്റർ	-10.5663
പോർട്ട്	-10.5664
▁പരാജയപ്പെട്ട	-10.5669
▁സജ്ജ	-10.5673
▁കുന്തി	-10.5674
പ്രദ	-10.568
▁തിരഞ്ഞെടുത്തു	-10.5682
▁താലൂക്കിലെ	-10.5683
▁പദങ്ങൾ	-10.5685
▁ടെലി	-10.5688
▁പാപ്പ	-10.5693
▁സരസ്വതി	-10.5695
ഭാഗത്തു	-10.5707
▁സ്ഥിരമായി	-10.572
ിലുണ്ട്	-10.5721
▁തെളി	-10.5722
ിയിരിക്കുന്നു	-10.5723
▁നട്ട	-10.5728
▁ബ്രാഹ്മണർ	-10.5731
▁തമ്മില	-10.5731
▁സമൂഹത്തിൽ	-10.5734
▁പുത്ത	-10.5734
▁രചയിതാവ	-10.5735
▁ഭൂരിഭാഗം	-10.5735
▁ഉറവിട	-10.5735
▁സന്താന	-10.5735
▁കാളിദാസ	-10.5736
▁എന്നാണു	-10.5736
▁നിലപാട്	-10.5737
▁1953	-10.5738
▁ഇസ്ലാമ	-10.5739
▁കരുതുന്ന	-10.5739
▁പ്രോഗ്രാമിംഗ്	-10.574
▁അതോടൊപ്പം	-10.5741
▁വ്യാപിച്ചു	-10.5742
▁ചീഫ്	-10.5742
▁വരുത്തിയ	-10.5742
▁ടാഗ	-10.5744
വാരി	-10.5749
▁നടപ്പ	-10.5753
▁എഴുത്തു	-10.5754
ty	-10.5755
▁പറയപ്പെടുന്ന	-10.5757
▁മൂലകമാണ്	-10.5757
▁അങ്ങാടി	-10.5757
▁പകരമായി	-10.5758
▁കറി	-10.576
▁എത്തിച്ച	-10.5763
▁ഭരിക്ക	-10.5767
▁കടത്ത	-10.5772
മേഖലയിൽ	-10.5776
ak	-10.5778
▁ചേരുന്നു	-10.5781
▁ക്വി	-10.5781
▁കഴിഞ്ഞില്ല	-10.5785
▁സയൻസ	-10.5788
▁ഇരുപത	-10.5791
▁നേടുന്ന	-10.5792
▁ആവശ്യമാണ്	-10.5795
▁പ്രജനന	-10.5801
▁വളർത്തി	-10.5801
▁വാദിച്ചു	-10.5802
▁മതില	-10.5806
▁ഭാസ	-10.5809
▁se	-10.5809
നിർമ്മിത	-10.5809
▁പുരസ്	-10.5809
▁വരികയും	-10.5813
നിർണ്ണയ	-10.5815
വിജ്ഞാന	-10.5819
▁കോർപ്പറേഷൻ	-10.5821
▁മൃദു	-10.5822
▁ക്യാപ്റ്റൻ	-10.5822
▁അസംബ്ലി	-10.5822
▁സൗജന്യ	-10.5822
▁രാക്ഷസ	-10.5823
▁ചോദിച്ച	-10.5823
▁1934	-10.5825
▁1963	-10.5825
ധേയ	-10.5829
▁ഈർപ്പ	-10.5831
▁ഉണങ്ങ	-10.5832
ാവാം	-10.5833
സമ്പത്ത	-10.5833
▁ഇരുണ്ട	-10.5833
▁കിംഗ്സ്	-10.5834
ലേക്ക്	-10.5839
▁ഉടനെ	-10.5839
▁വേറെ	-10.5845
▁2004-	-10.5847
▁കാലഘട്ടത്തിലെ	-10.5848
പ്പോള	-10.5851
▁പദ്ധതികൾ	-10.5854
▁മാട	-10.5866
െടുക്കുക	-10.5867
സങ്കല്പ	-10.5868
▁പുത്തൻ	-10.587
▁വ്യാപകമായ	-10.5875
▁ബാറ്റ്	-10.5875
ers	-10.588
▁ഡാറ്റ	-10.5881
▁കാപ്പി	-10.5889
▁കാണാന	-10.5895
▁കടന്ന്	-10.5896
▁പാണ്ഡവര	-10.5902
ാകൃതിയിലുള്ള	-10.5907
▁ബുക്ക	-10.5907
▁രൂപവത്കരിക്ക	-10.5909
▁കരുണാകര	-10.5909
▁കൂട്ടിച്ചേർത്ത	-10.5909
▁നിരീക്ഷിച്ച	-10.5909
▁വെല്ലുവിളി	-10.5909
▁ക്ഷത്രിയ	-10.5909
▁ദരിദ്ര	-10.5909
▁പതിനേഴാം	-10.5909
▁അരങ്ങേറ്റം	-10.5909
▁ഹനുമാന	-10.591
▁ലോക്സഭ	-10.591
▁നേരത്തേ	-10.591
▁pro	-10.5914
പുഴ	-10.5916
വാഹി	-10.5917
▁എഴ	-10.5918
▁അർജ്ജുനന	-10.5918
▁ചാത്ത	-10.5923
നീഷ്യ	-10.5925
▁ബെയ്	-10.5927
പ്രഭ	-10.5928
പെടുന്ന	-10.5928
▁ചിത്രീകരിക്ക	-10.5931
▁പുത്രി	-10.5932
വിധായക	-10.5936
▁ഭാഷയിലെ	-10.5945
▁നേതാവായ	-10.5945
▁റായ്	-10.5946
▁എല്ലാവര	-10.5949
▁ഇറക്ക	-10.5949
മ്ര	-10.5952
▁ലഭിക്കും	-10.5952
▁മുണ്ട	-10.5959
ചലന	-10.5968
▁മാത്രമായി	-10.5968
▁സജീവമായി	-10.5969
▁ഒന്നിലധിക	-10.5974
▁മധു	-10.5978
വീര	-10.5978
വിതരണ	-10.5979
പാത്ര	-10.598
▁പ്രവേശിച്ചു	-10.5981
▁നിയമിച്ചു	-10.5982
▁അദ്ദേഹത്തിന	-10.5984
▁നായകനായ	-10.5993
▁ആട്ടക്കഥ	-10.5998
▁മാതാപിതാക്കൾ	-10.5998
▁പ്ലൂട്ടോ	-10.5998
▁ന്യൂനപക്ഷ	-10.5998
▁പ്രമേഹ	-10.5998
▁വ്യോമ	-10.5998
▁പ്രചരിച്ച	-10.5999
▁അതുവഴി	-10.6005
▁ഇരുവരും	-10.6007
മാരായ	-10.6017
▁ഉഷ്ണ	-10.6017
വചന	-10.6019
▁ഡച്ച്	-10.602
ക്കടല	-10.602
▁നിർമ്മിക്കാൻ	-10.6023
ിറങ്ങിയ	-10.6025
കൊണ്ടിരിക്ക	-10.6029
▁1000	-10.6031
തുടങ്ങിയ	-10.6031
▁ഏറ്റെടുത്ത	-10.6032
▁പിടിച്ചെടുക്ക	-10.6033
▁na	-10.6037
ത്തോടുകൂടി	-10.6038
▁പുല്ല	-10.6044
▁മന്ത്രവാദ	-10.6046
hy	-10.6051
ഭക്ത	-10.6053
▁കരുതുന്നത്	-10.6057
▁കൊത്തി	-10.6057
പൂര	-10.6061
▁ഇങ്ങനെയാണ്	-10.6064
▁അണിയ	-10.6079
▁ആദ്യത്തേത	-10.608
ind	-10.6082
▁ഡിജിറ്റൽ	-10.6087
▁അക്വീനാസ	-10.6087
▁അൽബേനിയ	-10.6087
▁ഉത്തരേന്ത്യ	-10.6087
▁യാഥാസ്ഥിതിക	-10.6087
▁സമുദ്രനിരപ്പിൽ	-10.6087
▁കണക്കിലെടുത്ത	-10.6087
▁അരിസോണ	-10.6087
നിരീക്ഷക	-10.6087
▁പൊരുത്ത	-10.6088
▁മെച്ചപ്പെട്ട	-10.6088
ip	-10.6088
▁കല്യാണ	-10.6088
▁ഭൂമിശാസ്ത്ര	-10.6089
▁മാതാവ	-10.6089
▁1921	-10.609
▁നക്ഷത്രത്തിന്റെ	-10.6097
▁ശരീരത്തിന്റെ	-10.6099
▁ദെ	-10.6101
▁വിശേഷണ	-10.6108
▁അക്ഷ	-10.6108
▁ഗർത്ത	-10.6111
▁ശാസ്ത്രജ്ഞർ	-10.6117
▁ഉമ്മ	-10.6124
കലർന്ന	-10.6125
▁ക്രിക്കറ്റിൽ	-10.6125
ിറങ്ങ	-10.6126
▁വാള	-10.613
▁പോരാട	-10.6142
▁1980-	-10.6143
▁വിശ്വസിക്ക	-10.6145
▁എന്നിവയ്ക്ക്	-10.6146
യിലുണ്ട്	-10.6146
ന്യൂ	-10.6158
▁അവരിൽ	-10.6159
▁കർമ	-10.616
മനുഷ്യ	-10.6161
▁സമൂഹത്തിന്റെ	-10.617
നാടിന്റെ	-10.6173
▁മടക്ക	-10.6173
▁നാനാ	-10.6174
▁ആധികാരിക	-10.6177
▁ടെക്നോളജി	-10.6177
▁ഹ്രസ്വ	-10.6177
ുകയാണുണ്ടായത്	-10.6177
▁ഉച്ചാരണ	-10.6177
ion	-10.6177
▁സംഘർഷ	-10.6177
▁സൂര്യപ്രകാശ	-10.6178
▁പരിശ്രമ	-10.6181
ഫോൺ	-10.6184
▁ആരും	-10.619
▁പ്രവേശിച്ച	-10.6196
ിനോടൊപ്പം	-10.6197
യിലേയും	-10.6202
ാകാൻ	-10.6205
സന്ധ്യ	-10.6209
▁സദാ	-10.6214
ിട്ടുണ്ട	-10.6217
▁മിശ്ര	-10.6227
ത്തിനാണ്	-10.6229
▁ഇറങ്ങി	-10.6231
ിന്റേത	-10.6232
▁കോവില	-10.6239
▁അന്ധ	-10.6239
ko	-10.6245
▁ആംഗലേയ	-10.6249
▁2001-	-10.625
▁നോട്ട	-10.6252
രാഷ്ട്രീയ	-10.6259
▁അസ്ഥി	-10.6263
▁രുദ്രാക്ഷ	-10.6268
▁അധീനതയില	-10.6268
▁ഉത്പന്ന	-10.6268
▁അങ്കമാലി	-10.6268
▁ചെയർമാന	-10.6268
▁പ്രതിപാദിച്ച	-10.6268
▁ഇക്കാര്യ	-10.6269
▁സെന്റർ	-10.6269
▁മകര	-10.6269
▁മത്സരിച്ച	-10.6269
▁ഉൾക്കടല	-10.6269
▁ഫിലിപ്പ	-10.6269
▁ബ്ലോക്ക	-10.627
▁ചെല്ല	-10.6271
▁വിൻസെൻറ്	-10.6271
പരിപാലന	-10.6271
പ്പിള്ളി	-10.6277
▁നിശ്ചയിക്ക	-10.6277
▁പ്രാണ	-10.6277
▁പ്രദേശത്തിന്റെ	-10.6277
േണ്ടതുണ്ട്	-10.6278
▁എട്ടാം	-10.6279
▁തീരദേശ	-10.6279
ൊഴുകുന്ന	-10.628
▁കർണ്ണൻ	-10.6285
ിരുന്നുവെങ്കിലും	-10.6286
▁ഇരിക്ക	-10.6288
▁യാത്രാ	-10.6288
കരിച്ചു	-10.6288
▁താന	-10.6288
▁ക്ലോ	-10.629
▁ബ്രിട്ടീഷുകാര	-10.6294
▁ലയിച്ച	-10.6296
▁തത്ത്വശാസ്ത്ര	-10.6297
ിലെത്തിയ	-10.63
ാക്രമണ	-10.6301
▁മന്ദ	-10.6307
▁സംസ്ഥാനങ്ങളിൽ	-10.6309
മായിത്തീർന്നു	-10.6311
▁ഉണ്ടാകുന്നത്	-10.6311
▁ഒന്നര	-10.6311
കൊച്ചി	-10.6311
ബ്രി	-10.6314
▁ചെയ്യുമ്പോൾ	-10.6317
▁രൂപംകൊണ്ട	-10.6324
േക്കാളും	-10.6324
▁തീയ	-10.6332
▁യുക്ത	-10.6334
കിരണ	-10.6338
▁രണ്ടോ	-10.6342
▁സമയത്തു	-10.6343
ചികിത്സ	-10.6344
▁യൂറോപ്പിലെ	-10.6344
▁ഇടവേള	-10.6347
▁ഐക്യനാടുകള	-10.6349
▁പുതുക്കി	-10.6355
വാഹന	-10.6359
▁അഗസ്തീനോസ	-10.636
▁അലൂമിനിയ	-10.636
▁ടൂർണമെന്റ	-10.636
▁പ്രസിഡണ്ട	-10.636
▁പ്രോഗ്രാം	-10.636
▁ശതവാഹന	-10.636
▁പ്രശംസ	-10.636
ചാമുണ്ഡി	-10.636
▁ഉത്തരവാദിത്ത	-10.636
▁പ്രാവശ്യം	-10.636
▁1970-	-10.6362
ചാരി	-10.6362
▁പഞ്ചസാര	-10.6363
les	-10.6363
▁പടർന്ന	-10.6363
▁കൊട്ടാരക്കര	-10.6364
▁ജലാശയ	-10.6364
▁രാജാക്കന്മാരുടെ	-10.6373
വെന്നു	-10.6374
പ്രവർത്തനങ്ങൾ	-10.6374
▁ഗ്രന്ഥശാല	-10.6376
▁തിരിയ	-10.6383
▁ബാല്യകാല	-10.6383
▁അനുയായികള	-10.6383
▁മുതൽക്കേ	-10.6384
െത്തുടർന്ന്	-10.6386
ാഘോഷ	-10.6396
▁ഇഞ്ചി	-10.6396
▁ആവാസ	-10.6397
▁സീതയെ	-10.6398
▁സുരക്ഷ	-10.6399
tro	-10.6399
▁താമസിക്ക	-10.6402
ടിയേറ്റ	-10.6402
ഡ്രോ	-10.6404
▁വാക്കിൽ	-10.6405
▁രചനാ	-10.6414
▁ലാഭ	-10.6418
▁തമിഴിൽ	-10.6418
▁നേടിയിട്ടുണ്ട്	-10.6422
പ്പെടുന്നുണ്ട്	-10.6426
ായിത്തീർന്നു	-10.6428
ംബര	-10.6432
ുറപ്പിച്ച	-10.6435
▁വിദ്യാർത്ഥികൾ	-10.6438
▁ബ്രാഡ്	-10.6442
▁പൂർണ്ണമായി	-10.6443
▁പ്രദേശങ്ങളില	-10.6444
▁നെഹ്	-10.6447
▁മാഗ	-10.6447
▁മറ്റുള്ളവര	-10.6449
://	-10.6452
▁വൈരുദ്ധ്യ	-10.6452
▁സ്റ്റുഡിയോ	-10.6452
▁അഫ്ഗാനിസ്താന	-10.6452
▁സയ്യിദ്	-10.6452
▁ഡേവിഡ്	-10.6453
▁ഇല്ലാതാക്ക	-10.6453
▁ഓപ്പൺ	-10.6453
▁സെന്റീമീറ്റർ	-10.6453
▁അവിടുത്തെ	-10.6453
▁ക്യാമറ	-10.6453
▁ലവണ	-10.6454
▁ഭ്രമണപഥ	-10.6454
▁സുഹൃത്തുക്കള	-10.6455
▁തമ്പി	-10.6456
▁1937	-10.6456
▁ഡോക്ടർ	-10.6456
ൊപ്പം	-10.6456
▁പൊക്ക	-10.6458
▁നശിച്ച	-10.6463
▁പിരിഞ്ഞ	-10.6469
▁സഹായി	-10.647
▁വിവർത്തന	-10.6473
▁കണ്ടെടുത്ത	-10.6475
ക്ഷമത	-10.6475
▁രണ്ടാമൻ	-10.6477
▁വാമന	-10.6477
▁for	-10.6479
▁നിർമ്മിക്കുന്നത	-10.6486
▁മകനായ	-10.6488
▁ബന്ധപ്പെടുത്ത	-10.6492
▁വചന	-10.6492
ാതിരിക്കാൻ	-10.6496
യൂസ്	-10.65
ഗതാഗത	-10.65
org	-10.6503
▁ലാവ	-10.6506
▁മന്ദിര	-10.651
▁പതിക്കുന്ന	-10.6511
▁ചമ്പ	-10.6516
▁ആർമി	-10.6525
വ്രത	-10.6532
ഘ്ന	-10.6533
▁പോള	-10.6539
▁പ്രതികൂല	-10.6546
▁മില്യൺ	-10.6546
▁തർജ്ജമ	-10.6546
▁നാടോടി	-10.6546
ശൂന്യ	-10.6547
▁ഫയർഫോക്സ്	-10.6547
▁ബാലകൃഷ്ണ	-10.6552
▁രൂപാന്തര	-10.6555
ാവതാര	-10.6556
നിന്നാണ്	-10.6559
▁നിർണ്ണയിക്ക	-10.6559
▁പ്രാധാന്യമുള്ള	-10.6562
▁വൈദ്യശാസ്ത്ര	-10.6574
▁രാജാവിനെ	-10.6574
സംഗ്രഹ	-10.6576
▁ഉൾപ്പെടുത്ത	-10.6577
ിയ്ക്കുകയും	-10.6577
▁തിന്ന	-10.6581
▁കീഴടക്ക	-10.6586
ോണുകൾ	-10.6588
▁റെഡ്	-10.6591
▁ഷഡ്	-10.6593
▁തങ്ക	-10.6608
▁ജനങ്ങളിൽ	-10.6612
▁സീസണ	-10.6614
ുമെന്നു	-10.6615
ിക്കുന്നതിനു	-10.6619
▁ഉൾപ്പെടുത്തി	-10.6624
03	-10.6625
മാണെന്നു	-10.6625
പണ്ഡിത	-10.6626
▁ഗോലി	-10.6629
▁രാജ്യങ്ങളും	-10.6635
യിൽനിന്ന്	-10.664
▁കൗൺസില	-10.664
▁ഏകാദശി	-10.664
▁കന്നുകാലി	-10.664
▁ഡിസംബറിൽ	-10.664
▁നിത്യഹരിത	-10.664
▁പ്രായപൂർത്തി	-10.664
▁വെള്ളപ്പൊക്ക	-10.664
▁പ്രചരിപ്പിക്ക	-10.664
▁അത്യാവശ്യ	-10.664
▁നമ്പ്യാർ	-10.664
▁മാതൃഭൂമി	-10.6641
▁കൈവരിച്ച	-10.6642
▁ചുറ്റപ്പെട്ട	-10.6643
മുനി	-10.6644
▁നേരിടുന്ന	-10.6644
▁കാണപ്പെട	-10.6644
▁സമർത്ഥ	-10.6645
റോൺ	-10.6646
▁നിഷേധിക്ക	-10.6649
ഡൈ	-10.6654
▁വടക്കുപടിഞ്ഞാറ	-10.6661
ക്രോ	-10.6661
▁ആധിപത്യ	-10.6668
▁അതിരുകൾ	-10.6668
we	-10.6669
▁കൊല്ലപ്പെട്ട	-10.667
▁സ്ഥലത്തെ	-10.667
▁കണിക	-10.6676
▁ചെയ്യേണ്ട	-10.6679
▁അല്ലാത്ത	-10.6681
ിനെക്കുറിച്ച	-10.669
ഭജന	-10.6691
▁തിയോ	-10.6691
▁നേതാക്കൾ	-10.6695
hu	-10.6695
▁സ്പെയിന	-10.6696
▁മുറിവ	-10.6702
▁തേര	-10.6709
▁മുൻപു	-10.6714
ൊഴികെ	-10.6715
▁വിമർശിക്ക	-10.6718
ദൃശ്യ	-10.6719
അറബി	-10.6723
▁വരിക	-10.6725
▁കരിങ്ക	-10.6727
ബാല	-10.6731
▁പുനഃ	-10.6731
▁തെരഞ്ഞെടുത്ത	-10.6736
▁പ്രായോഗിക	-10.6736
▁ശൈത്യ	-10.6736
▁ഗാലക്സി	-10.6736
▁കടൽത്തീര	-10.6736
▁ഗൾഫ്	-10.6736
▁അവളുടെ	-10.6736
▁നായിക	-10.6736
▁പാചക	-10.6736
▁ക്ഷേമ	-10.6737
▁യമുന	-10.6737
▁പഴശ്ശി	-10.6737
▁ആകർഷിച്ച	-10.6738
▁കൂട്ടിയിടി	-10.6738
▁1936	-10.6738
▁ഉടൻ	-10.6739
▁ദിവാൻ	-10.6739
▁ഫീൽഡ	-10.674
മുഴ	-10.674
▁ബീജ	-10.6743
▁കുടിയേറ	-10.6746
▁ഹൈഡ്രജന	-10.6747
▁അടിച്ച	-10.6748
▁നൂറ്റാണ്ടുകള	-10.6749
▁പഠിക്കുന്ന	-10.6751
ത്തിനെതിരായ	-10.6751
രോപ	-10.6755
▁അർത്ഥത്തിൽ	-10.6755
▁നിലനിർത്തി	-10.6758
വീണ	-10.6759
▁വേണാട	-10.6762
ാരോഗ്യ	-10.6763
▁വിശ്വാസികൾ	-10.6768
▁വാഗ്	-10.6771
യുടേ	-10.6777
▁ചെയ്യാനുള്ള	-10.6779
▁രചിച്ചിട്ടുണ്ട്	-10.6779
▁പ്രയോഗിച്ച	-10.678
▁ചാർത്ത	-10.6781
▁നേടുകയും	-10.6782
▁ഹ്യൂ	-10.6783
▁മറിയ	-10.6785
▁പ്രയോജന	-10.6789
▁ഇല്ലാതെ	-10.679
▁ദിവസത്തെ	-10.6795
▁തിരുവല്ല	-10.6797
▁അവശിഷ്ടങ്ങൾ	-10.6799
▁മതപരമായ	-10.6801
ില്ലെന്ന	-10.6805
▁സർവീസ	-10.6806
▁ലഭ്യമാക്ക	-10.6809
വുമായുള്ള	-10.6812
iv	-10.6815
▁കുറെ	-10.6818
▁അബു	-10.6826
▁കിങ്	-10.6826
പരിധി	-10.6827
▁റിപ്പബ്ലിക്	-10.6828
▁ഗാംഗുലി	-10.6832
▁കൊഴുപ്പ	-10.6832
▁എഡിസൺ	-10.6832
▁ലഭ്യത	-10.6832
▁ലിനക്സ്	-10.6832
▁നേപ്പാള	-10.6832
▁കടന്നുപോകുന്ന	-10.6832
താണെന്നും	-10.6833
▁നർത്തക	-10.6833
ാതീത	-10.6834
▁ശുദ്ധജല	-10.6835
▁നടത്തിവരുന്ന	-10.6835
ഗണിത	-10.6837
▁വിജയനഗര	-10.6838
▁മാർക്സിസ	-10.6838
▁സെനറ്റ	-10.6841
▁പ്രിയപ്പെട്ട	-10.6843
▁ബസ	-10.6844
▁കൊല്ലപ്പെട്ടു	-10.6845
▁നടപ്പിലാക്കിയ	-10.6845
33	-10.6846
▁മോർ	-10.685
▁തുടരുന്നു	-10.6854
▁ചൊ	-10.6864
ത്തിന്റേത	-10.6865
▁ഒഴിവാക്കി	-10.6867
കവിത	-10.6871
▁തമ്പുരാന	-10.6871
▁സഹായിച്ച	-10.6871
യാക്കിയ	-10.6872
▁പത്മനാഭ	-10.6876
▁ശിലായുഗ	-10.6882
കോള	-10.6885
ഭക്തി	-10.6887
സത്യ	-10.6887
▁താഴെയുള്ള	-10.6894
▁ഹോക്കി	-10.69
കഴിഞ്ഞ	-10.6903
ത്തിലേറെ	-10.6906
വളർത്ത	-10.6906
▁വിൽക്ക	-10.6906
▁കൊട്ടാരത്തിൽ	-10.6915
▁വയറ	-10.6917
മത്സര	-10.692
▁കുടിയേറിയ	-10.6921
നൃത്ത	-10.6922
ഗ്രഹണ	-10.6923
▁ചുരുങ്ങ	-10.6928
ശാസന	-10.6928
▁വിപരീത	-10.6929
▁ഉദ്ഘാടന	-10.6929
▁ഏജൻസി	-10.6929
▁ചെയർമാൻ	-10.6929
▁പങ്കുവഹിച്ച	-10.6929
ത്തിനിടയിൽ	-10.6929
▁രാവണൻ	-10.6929
▁തപാൽ	-10.6929
▁തപസ്സ	-10.6929
▁പട്ടണമാണ്	-10.693
▁ബിഷപ്പ	-10.693
▁നിശ്ചയിച്ച	-10.6932
▁അനുപാത	-10.6936
ജ്ഞർ	-10.694
▁കൂടുതലുള്ള	-10.6945
▁ചിത്രീകരണ	-10.6954
▁കഴിവുള്ള	-10.6957
▁നാട്യ	-10.6965
che	-10.6968
▁ലളിതമായ	-10.6974
കെട്ടി	-10.6981
▁എനിക്ക	-10.6981
▁വിമർശിച്ച	-10.6985
▁ബന്ധിപ്പിച്ച	-10.6986
▁ശ്രേണി	-10.6988
▁ഡിസ്ക	-10.6989
ത്തേയ്ക്ക്	-10.6996
്യാസ	-10.7005
▁അല്ലാതെ	-10.7009
▁ഗംഗാ	-10.7009
inter	-10.701
തൊഴിലാളി	-10.7016
▁ഭാഗങ്ങളും	-10.7018
▁പ്രവാചകൻ	-10.7019
ഹരണ	-10.7023
▁ജവഹർലാൽ	-10.7027
▁നിർണായക	-10.7027
▁പത്തൊൻപതാ	-10.7027
▁പുരോഗമന	-10.7027
▁വാല്മീകി	-10.7027
▁മൽസര	-10.7027
▁ബ്രസീല	-10.7027
മുകുന്ദ	-10.7027
▁മെച്ചപ്പെടുത്ത	-10.7028
▁അതീവ	-10.7028
▁ബൗദ്ധ	-10.7028
▁താങ്ങ	-10.7029
▁ദേഹ	-10.7029
▁നയതന്ത്ര	-10.703
▁ഗ്രേറ്റ്	-10.7032
▁അതിവേഗ	-10.7032
ക്കൊടുത്ത	-10.7032
▁കൈവരിക്ക	-10.7033
ങ്ങളോടെ	-10.7042
ഹൈഡ്ര	-10.7042
▁ഗദ്യ	-10.7043
▁അതുവരെ	-10.7043
▁കഴിയാത്ത	-10.7044
▁നേത്ര	-10.7045
▁പിതാവായ	-10.7049
▁ഭാഗത്തെ	-10.7052
▁ശ്രദ്ധേയമാണ്	-10.7054
▁അവസാനിപ്പിച്ച	-10.7057
▁ബ്ലൂ	-10.7062
ിനുവേണ്ടി	-10.7064
▁ന്യൂക്ലിയ	-10.7064
▁കുട്ടികളെ	-10.7066
▁പേരുണ്ട്	-10.7067
▁പെണ്ണ	-10.707
▁തവള	-10.7073
▁പൈതൃക	-10.7074
▁പറമ്പ	-10.7083
യുമുണ്ട്	-10.7083
സ്റ്റിക്	-10.7087
▁പരാതി	-10.709
▁ഉറപ്പിച്ച	-10.7094
തിനാലും	-10.7095
▁ഉപയോഗിക്കാം	-10.71
▁ലയിക്ക	-10.7103
▁വ്യക്തമാക്കുന്ന	-10.7108
▁കൊല	-10.7109
▁എതിർക്ക	-10.7111
നിഷ	-10.7112
വല്ലഭ	-10.7114
ുടമ	-10.7115
▁പ്രതിനിധീകരിക്ക	-10.7115
മാകുകയും	-10.7116
പരമ്പര	-10.7118
ദക്ഷിണ	-10.7121
▁കിണറ	-10.7124
▁നസ്രാണി	-10.7126
▁ഒക്ടോബറിൽ	-10.7126
▁വിഖ്യാത	-10.7126
▁ആവർത്തനപ്പട്ടിക	-10.7126
▁അനവധി	-10.7126
▁പ്രേരിപ്പിച്ച	-10.7126
▁ലാറ്റിൻ	-10.7126
▁നേരത്തെ	-10.7126
▁പരമാധികാര	-10.7127
രോഹണ	-10.7127
▁അണുസംഖ്യ	-10.7127
▁മിഷണറ	-10.7128
▁വജ്ര	-10.7128
▁നീക്കി	-10.713
▁അരുവി	-10.713
കാട്	-10.7131
▁കണ്ണാടി	-10.7133
▁ഇരുമ്പ്	-10.7136
ുണ്ടായിരുന്നില്ല	-10.7142
▁ശിശു	-10.7142
▁കോട്ടയത്ത	-10.7142
▁മേട	-10.7143
▁പിറവി	-10.7144
ാനാകും	-10.7146
പുഷ്പ	-10.7154
ുമെന്നാണ്	-10.7158
വീര്യ	-10.7161
▁തിരിച്ചറിയാൻ	-10.7163
ബോൾ	-10.7165
▁വൃദ്ധ	-10.7171
നേഷ്യ	-10.7174
▁രാജാവായിരുന്ന	-10.7178
ക്കിടെ	-10.7179
പോലുള്ള	-10.7179
▁ഫ്രീ	-10.7182
▁ബിരുദവും	-10.7186
▁(17	-10.7186
▁ചെറുതും	-10.7191
ുണ്ടാവുന്ന	-10.7193
▁നിലനിൽക്ക	-10.7195
▁ഭരണകാല	-10.7196
▁ന്യൂയോർക്ക	-10.7203
▁രൂപീകരണ	-10.7204
▁ചികിത്സാ	-10.7207
▁ദിവസങ്ങളിൽ	-10.721
▁കൌ	-10.7212
▁പതിമൂന്ന	-10.7218
▁ഭയന്ന	-10.7219
യാണെങ്കിലും	-10.7223
പാഠ	-10.7224
▁ഉല്പാദിപ്പിക്ക	-10.7226
▁പരിശോധന	-10.7226
▁ബാബിലോണി	-10.7226
▁വിഭിന്ന	-10.7226
▁അത്യന്ത	-10.7226
▁അക്ഷാംശ	-10.7227
▁സ്ഥാനാർത്ഥി	-10.7227
▁ത്രികോണ	-10.7227
▁മുന്നോട്ട്	-10.7227
▁ചാനൽ	-10.7228
▁അമ്പലപ്പുഴ	-10.7228
▁1924	-10.723
▁ഇത്തരത്തിലുള്ള	-10.7234
▁നേരിയ	-10.7237
▁ചതുർ	-10.7237
▁ആധാരമാക്കി	-10.7238
▁ജന്മദിന	-10.7244
gen	-10.7249
▁കീഴടങ്ങ	-10.725
▁തറവാട	-10.7259
pp	-10.7259
േഷണ	-10.7267
▁പോയിന്റ	-10.7269
▁ഏറിയ	-10.7269
▁ആർട്ട്	-10.7274
▁പൊള്ള	-10.7276
▁ശ്രമിക്ക	-10.7279
സംസ്ഥാന	-10.7281
▁പദ്യ	-10.7283
▁ഒരാളാണ്	-10.7286
▁പുരുഷന്മാർ	-10.729
▁തൊട	-10.7292
▁കണക്കു	-10.7292
600	-10.7298
ധിപത്യ	-10.7299
▁ചന്ദ്രന്റെ	-10.7303
തെന്നാണ്	-10.7305
ചരിതം	-10.7306
ree	-10.7309
▁അനുയോജ്യമായ	-10.7311
▁പേരുള്ള	-10.7316
▁തദ്ദേശ	-10.7319
▁പ്രതികരണ	-10.732
നിരീക്ഷണ	-10.732
പാരമ്പര്യ	-10.732
▁എന്നറിയപ്പെട	-10.7325
▁ദുര്യോധന	-10.7327
▁അപ്രത്യക്ഷ	-10.7327
▁അഭ്യസിച്ച	-10.7327
▁ചൂണ്ടിക്കാട്ട	-10.7327
ഭ്രാന്ത	-10.7327
▁യഹോവ	-10.7327
▁കിഴങ്ങ	-10.7327
▁വസന്ത	-10.7327
▁1931	-10.733
▁വിദൂര	-10.7339
▁തേയില	-10.7345
▁ചെയ്യുന്നുണ്ട്	-10.7349
▁ഗേറ്റ്	-10.7351
▁മറ്റൊര	-10.7353
▁ഊട്ടി	-10.7353
▁ആചരിക്കുന്നു	-10.7353
▁വളഞ്ഞ	-10.7357
▁ആരംഭിക്കുന്ന	-10.7357
▁ശ്രമിക്കുന്ന	-10.736
▁സ്റ്റാർ	-10.7364
▁അനുഭവപ്പെട	-10.7366
▁വയ്ക്കുന്ന	-10.7367
▁ഏർപ്പെടുത്തിയ	-10.7374
▁മുൻപേ	-10.7376
ത്തിൽനിന്ന്	-10.7377
▁ചാർജ	-10.7381
▁കഴിക്കുന്ന	-10.7382
▁വാരിക	-10.7385
▁ടൈറ്റ	-10.7386
▁അംഗമായിരുന്നു	-10.7389
ാനാവില്ല	-10.7389
തുകൊണ്ട	-10.7397
▁പുലർത്തിയിരുന്ന	-10.7401
ദേശീയ	-10.7407
▁വളയ	-10.7411
▁ചരക്കു	-10.7412
▁വേനൽക്കാല	-10.742
▁ഇറങ്ങിയ	-10.7422
▁മദീനയിൽ	-10.7423
▁ആന്റി	-10.7425
മായിട്ടാണ്	-10.7426
▁ഗൂഗിൾ	-10.7429
▁ശ്രേഷ്ഠ	-10.7429
▁ال	-10.7429
▁ഓക്സിജൻ	-10.7429
▁റിച്ചാർഡ്	-10.7429
▁പേരുകേട്ട	-10.7429
▁കായംകുളം	-10.7429
▁മത്സ്യബന്ധന	-10.7429
▁സോഡിയം	-10.7429
▁മുരിങ്ങ	-10.7429
▁ഹജ്ജ്	-10.7429
▁ആസൂത്രണ	-10.743
▁പ്രയാസ	-10.743
▁ശിവരാത്രി	-10.743
▁കണക്കനുസരിച്ച്	-10.743
▁വാനര	-10.7431
▁1932	-10.7432
വിന്യാസ	-10.7433
▁വാങ്ങിയ	-10.7434
▁പ്രേമ	-10.7435
▁രാമവർമ്മ	-10.7436
▁പതിനാറാം	-10.7438
▁താവള	-10.7439
▁സൈന്യത്തെ	-10.744
▁ചെയ്തിരുന്നത്	-10.7441
▁യജ്ഞ	-10.7441
▁അണുകേന്ദ്ര	-10.7442
▁സഹായിക്കുന്ന	-10.7444
നാട്ടിലെ	-10.7444
▁ആവിഷ്കരിച്ച	-10.7445
▁ഉദ്യോഗ	-10.7448
▁സ്വന്തമാക്കി	-10.7458
▁അർജ്ജുനൻ	-10.7459
▁എന്നിവിടങ്ങളിലെ	-10.7463
ങ്ങളുമുണ്ട്	-10.7463
net	-10.7464
▁സ്ത്രീകൾക്ക	-10.7473
▁കളിക്കാർ	-10.7476
▁ഇതില	-10.7478
കന്യക	-10.7489
കാലത്തും	-10.7491
ഇന്ത്യൻ	-10.7492
▁എഴുതിയിട്ടുണ്ട്	-10.7494
▁1960-	-10.7496
▁സൃഷ്ടിക്കുന്ന	-10.7506
▁പുലയ	-10.7507
▁വേർതിരിച്ചെടു	-10.7513
▁ടീമുകൾ	-10.7513
▁കേള	-10.7514
ിനിടയ	-10.7517
ക്കെട്ടി	-10.7518
താണെന്ന	-10.7523
▁മെത്രാന	-10.7526
▁അയ്യർ	-10.7527
▁മുൻപിൽ	-10.7528
▁ആഹ്വാനം	-10.7532
▁കൂട്ടിച്ചേർക്ക	-10.7532
▁ഖിലാഫത്	-10.7532
▁ജെയിംസ്	-10.7532
▁സംവിധായകൻ	-10.7532
▁ശ്രുതി	-10.7532
ദൃഷ്ടി	-10.7532
▁ഇന്തോനേഷ്യ	-10.7532
സ്ത്രീ	-10.7533
▁ഉപയോഗിച്ചുള്ള	-10.7533
▁നോവലിസ്റ്റ	-10.7533
▁പ്രവർത്തിപ്പി	-10.7533
▁2021	-10.7535
▁1951	-10.7536
▁കാരണമാകുന്നു	-10.7537
▁സുഗന്ധ	-10.7538
▁നവീന	-10.7538
▁മൗലിക	-10.7539
▁സൂഫി	-10.7541
ഛായ	-10.7544
▁പരിഷത്	-10.7544
തുരുത്തി	-10.7546
ിക്കൊണ്ടിരിക്ക	-10.7552
▁രാജ്യസഭ	-10.7552
ാസുര	-10.7557
പ്പോലും	-10.7558
പോള	-10.7559
പ്പെടാത്ത	-10.7563
▁അവസാനിപ്പിക്ക	-10.7569
▁ചേർന്നതാണ്	-10.7571
സ്വരൂപ	-10.7574
▁വടക്കോട്ട	-10.7574
ക്കാടുകള	-10.7595
▁മറ്റുള്ളവർ	-10.7605
▁എന്നിങ്ങനെയുള്ള	-10.761
കോടി	-10.7612
sion	-10.7612
ലോൺ	-10.7619
▁ഇംഗ്ലണ്ടിലെ	-10.7627
ാനായില്ല	-10.7627
▁വടക്കുഭാഗത്ത	-10.7627
▁ചെയ്താൽ	-10.7628
യായിരിക്കും	-10.7633
▁നിർണ്ണായക	-10.7636
▁മെത്രാപ്പോലീത്ത	-10.7636
▁രൂപകൽപ്പന	-10.7636
▁ആന്ധ്രാപ്രദേശ	-10.7636
▁പണികഴിപ്പിച്ച	-10.7636
▁അയാളുടെ	-10.7636
▁വാസ്തു	-10.7636
▁ഭഗവദ്	-10.7636
▁വിജ്ഞാനകോശ	-10.7637
▁കണ്ണൂര	-10.7638
▁രാഹു	-10.764
▁എഞ്ചിനീയറിംഗ്	-10.764
▁1942	-10.764
▁വിളിച്ചിരുന്നത്	-10.7643
▁മഹായുദ്ധ	-10.7647
വണ്ണം	-10.7652
▁രൂപപ്പെടുത്ത	-10.7653
▁താഴേക്ക	-10.7655
▁തള്ള	-10.7656
▁പറയാറുണ്ട്	-10.7662
▁അംഗീകാര	-10.7665
മന്ത്രിയായിരുന്ന	-10.7668
ില്ലെങ്കിൽ	-10.7673
▁തൈകൾ	-10.7677
നോവ	-10.7679
ിലൊരാളായ	-10.7684
▁വാക്കിന്റെ	-10.7687
▁എക്കാലത്ത	-10.7689
രാശി	-10.769
▁മനസ്സിൽ	-10.769
പാർട്ടി	-10.7707
ക്കൊള്ള	-10.7717
നിഷേധ	-10.7727
ഓടെ	-10.7728
[[	-10.7739
▁ജീവിതത്തിലെ	-10.774
▁ഡെമോക്രാറ്റിക്	-10.7741
▁സ്പെക്ട്ര	-10.7741
▁അഭിവൃദ്ധി	-10.7741
▁ഡച്ചുകാർ	-10.7741
▁പീഠഭൂമി	-10.7741
▁സേവനമനുഷ്ഠിച്ച	-10.7741
▁അതുകൊണ്ടുതന്നെ	-10.7741
▁വളരെയേറെ	-10.7741
▁വിപാകം	-10.7741
▁വൈവിധ്യ	-10.7741
▁മദ്രാസി	-10.7742
▁വത്തിക്കാൻ	-10.7742
▁ആഗസ്റ്റ്	-10.7742
▁ജനിതക	-10.7742
▁പിടിച്ചടക്കി	-10.7742
▁വിളംബര	-10.7743
▁കൈലാസ	-10.7743
▁ആരോപിക്ക	-10.7745
▁നിരാശ	-10.7745
▁കമാൻഡ	-10.7746
▁മീഡിയ	-10.7747
▁വയലാർ	-10.7748
▁കുറുകെ	-10.7749
▁ക്യാപ്റ്റന	-10.775
▁ഐക്യനാടുകളിലെ	-10.7754
▁നന്ദി	-10.7755
▁വാർഡ	-10.7756
വയസ്സ	-10.7756
▁സൗത്ത്	-10.776
▁നടത്താറുണ്ട്	-10.7769
ാറുള്ളൂ	-10.7773
വധം	-10.778
▁ആഫ്രിക്കയിലെ	-10.7789
തത്വ	-10.7792
ത്താല	-10.7801
▁ഉൾക്കൊണ്ട	-10.7817
ാനുമുള്ള	-10.7818
പടല	-10.7821
▁എന്തെങ്കിലു	-10.7836
cy	-10.7836
ിനെതിരായ	-10.7837
ിറങ്ങുന്ന	-10.7843
സ്രോതസ്സ	-10.7846
ഇന്നത്തെ	-10.7847
▁പത്തൊമ്പതാ	-10.7848
▁ഇന്റർനാഷണൽ	-10.7848
▁നിർവഹിക്ക	-10.7848
▁പരിണമിച്ച	-10.7848
▁എന്നർത്ഥമുള്ള	-10.7848
▁പലായനം	-10.7848
സ്നേഹ	-10.7849
▁കൃഷിചെയ്യ	-10.7849
▁ഔഷധഗുണ	-10.785
▁പെരുമാറ്റ	-10.7851
▁കൊണ്ടുപോക	-10.7853
ian	-10.7853
▁ഉണക്കി	-10.7854
▁മുല്ല	-10.7856
▁ഉപാധി	-10.7858
ദിശ	-10.7863
▁അനുയോജ്യ	-10.7864
ായിരിക്കാം	-10.7868
▁ഇൻഫ	-10.7869
യോടുള്ള	-10.7871
▁ചിത്രകാരന	-10.7871
▁നശിക്ക	-10.7872
▁ക്വാ	-10.7874
▁മദീനയിലെ	-10.7874
നിറുത്ത	-10.7874
▁ഹാർഡ്	-10.7875
രാജാവായ	-10.7878
▁സംഭരണ	-10.7878
ill	-10.7881
▁സാധാരണക്കാര	-10.7886
▁കീട	-10.7891
▁പദാർഥ	-10.7895
▁ജൂലിയ	-10.7902
▁ലഭ്യമല്ല	-10.7903
▁നേരിടേണ്ടി	-10.7906
▁വച്ചാണ്	-10.7908
▁വളരെക്കാല	-10.7931
യൂട്ട്	-10.7931
ത്തുടങ്ങി	-10.7934
▁റേഡിയ	-10.7939
സഹോദര	-10.7954
▁കാഞ്ഞിര	-10.7955
▁നിബന്ധന	-10.7955
▁അഭിഭാഷക	-10.7955
വിധേയമാക്ക	-10.7956
▁ദുരിത	-10.7956
▁ആഗോളവത്കരണ	-10.7956
▁ടാഗോർ	-10.7956
▁ആഥൻസ	-10.7957
▁പ്രത്യേകിച്ചും	-10.7958
▁കൊടിമര	-10.7959
▁വടകര	-10.7961
▁പ്രകടമായ	-10.7963
▁പ്രജ	-10.7965
▁താജ്	-10.7972
▁പങ്കിടുന്ന	-10.7974
▁എവിടെ	-10.7975
▁സന്യാസ	-10.798
കോൺ	-10.7982
▁അറിയിക്ക	-10.7982
▁വസ്തുക്കളുടെ	-10.7983
സിംഹ	-10.7985
der	-10.8013
ണിഞ്ഞ	-10.8022
▁ഏഷ്യയിലെ	-10.8024
▁ചാലക	-10.8029
▁മുന്നില	-10.8029
edit	-10.8031
▁മനുഷ്യരുടെ	-10.8037
▁നിറമുള്ള	-10.8039
ചെയ്യുന്ന	-10.8039
ബർഗ	-10.805
▁നേതൃ	-10.8064
▁ഐസോട്ടോപ്പ	-10.8064
▁നിഘണ്ടു	-10.8064
▁ന്യൂട്രിനോ	-10.8064
▁മംഗലാപുരം	-10.8064
▁വിക്ഷേപണ	-10.8064
▁ഇറക്കുമതി	-10.8064
▁കുരിശു	-10.8064
▁റിസർച്ച്	-10.8064
▁പ്രദർശിപ്പിച്ച	-10.8064
▁സമകാലിക	-10.8064
▁അബ്ദുൾ	-10.8064
▁പിറ്റേ	-10.8064
▁പ്രദാനം	-10.8064
▁ഇന്നിംഗ്സ	-10.8065
▁ആവാസവ്യവസ്ഥ	-10.8065
രശ്മി	-10.8065
▁ആരോപിച്ച	-10.8066
▁ധർമ	-10.8066
▁1933	-10.8066
▁രസാദി	-10.8067
▁ഹിമാനി	-10.8068
▁പണിക്കർ	-10.8068
▁1914	-10.8071
▁ചാവെസ	-10.8071
▁സ്ഥലത്താണ്	-10.8073
ശങ്കര	-10.8074
▁ആരാധിക്കുന്ന	-10.8075
cl	-10.8081
ശലഭ	-10.8083
പ്പോയ	-10.809
▁മാത്രമുള്ള	-10.8092
വരേയും	-10.8097
▁അവശിഷ്ട	-10.8102
▁ആയതിനാൽ	-10.8103
▁ഉണ്ടായിരിക്ക	-10.811
▁പീഡന	-10.8115
▁പ്രോഗ്രാമുകൾ	-10.8115
▁ഭാഗങ്ങളിലും	-10.8115
ിലൊരാള	-10.8124
▁കാലത്തു	-10.814
മാതൃക	-10.8152
▁ആചരിക്ക	-10.8153
ല്പ്പ	-10.8157
കുറഞ്ഞ	-10.817
ana	-10.8172
ചൈതന്യ	-10.8174
▁അൽജീരിയ	-10.8174
▁ഫെഡറൽ	-10.8174
▁ശുപാർശ	-10.8174
▁നിമിത്തം	-10.8174
▁സെൻട്രൽ	-10.8174
▁തികഞ്ഞ	-10.8174
▁നിരോധന	-10.8174
▁നെപോളിയന	-10.8175
▁ബിരുദാനന്തര	-10.8175
▁യോജിച്ച	-10.8175
ത്തെക്കുറിച്ചും	-10.8176
▁ചാണക	-10.8176
▁കൂടിച്ചേർന്ന	-10.8177
▁അദ്ധ്യാപകനായി	-10.818
വീക്ഷണ	-10.818
▁ഓഹരി	-10.8182
▁കരസേന	-10.8184
4%	-10.8185
▁സുവർണ്ണ	-10.8185
കളുമുണ്ട്	-10.8187
പറഞ്ഞ	-10.8189
▁എതിരായ	-10.8192
ഭുജ	-10.8198
▁ബാക്കിയുള്ള	-10.8199
▁വർദ്ധിച്ച	-10.8204
▁അനുജ	-10.8216
▁കിടക്ക	-10.8217
▁ii	-10.822
▁കോഴിക്കോട്ട	-10.8224
▁ചെലുത്തിയ	-10.8229
▁സമൂഹത്തിലെ	-10.8234
ുണ്ടെങ്കിൽ	-10.8235
▁ഏർപ്പെടുത്ത	-10.8242
▁സകല	-10.8244
▁വരുമ്പോൾ	-10.8249
തീർഥ	-10.825
▁തെക്കുഭാഗത്ത	-10.8266
▁നക്ഷത്രങ്ങളെ	-10.8275
▁ആരാധിക്ക	-10.828
▁ഐശ്വര്യ	-10.8285
▁ചാലൂക്യ	-10.8285
▁പൗരാണിക	-10.8285
▁തളിപ്പറമ്പ	-10.8285
▁തകർച്ച	-10.8285
▁മഹാത്മാഗാന്ധി	-10.8285
▁അധ്യായ	-10.8285
▁കണക്കുകൂട്ട	-10.8286
▁നിയോഗിക്ക	-10.8287
▁തൊണ്ട	-10.8288
▁ആയുർ	-10.8289
▁ഭസ്മ	-10.8289
▁1939	-10.8289
▁തിരിച്ചെത്തിയ	-10.8289
▁ഖഗോള	-10.829
▁വേഗം	-10.8292
▁റിയാദ	-10.8293
▁മുന്നിലെ	-10.8296
▁മല്ലി	-10.8296
▁ഓക്സിജന	-10.8297
ടിയോളം	-10.8297
▁പ്രാരംഭ	-10.8298
▁തോന്നിയ	-10.8301
▁രീതിയിലാണ്	-10.8315
▁രഥ	-10.8317
ുകാരുടെ	-10.8328
▁ദന്ത	-10.8329
▁തീർക്ക	-10.8334
വിഭവ	-10.834
ങ്ങളെക്കുറിച്ചു	-10.8349
▁കൊള്ളുന്ന	-10.8354
ലധികം	-10.8358
▁നൂറ്റാണ്ടില	-10.8377
ീജിയ	-10.8383
▁അഥർവ	-10.8385
േണ്ടിവന്നു	-10.839
▁ക്രിസ്ത്യാനികള	-10.8397
▁യഥാർഥ	-10.8397
▁ആംഗ്ലോ	-10.8397
▁ചിലയിടങ്ങളിൽ	-10.8397
▁നിമിഷ	-10.8398
▁മഗധ	-10.8398
▁നവരാത്രി	-10.8398
▁പോരാളി	-10.84
▁തനതായ	-10.8401
കൊടുക്കുന്ന	-10.8403
▁ഒരേയൊര	-10.8404
▁വേദാന്ത	-10.8405
സൂര്യ	-10.8408
▁തോമാ	-10.841
▁മറ്റെല്ലാ	-10.841
ിട്ടുണ്ടെങ്കിലും	-10.8412
വ്യത്യാസ	-10.8415
▁അനുസരിച്ച	-10.8421
▁ആൽഫ	-10.8425
▁നേതാവായിരുന്ന	-10.8428
ിട്ടില്ലാത്ത	-10.8435
േറ്റീവ്	-10.8439
▁പടിഞ്ഞാറോട്ട	-10.8441
▁തോൽപ്പിച്ച	-10.8443
▁ഓപ്പറേറ്റിങ്	-10.8457
▁പതിപ്പുകൾ	-10.8463
കുത്ത	-10.8476
നോടുള്ള	-10.8489
രണ്യ	-10.8495
▁കുട്ടികളുടെ	-10.8499
▁കോഴിക്കോട	-10.8502
▁ആർക്കും	-10.8505
▁അശ്വത്ഥാമാവ	-10.8511
ഭ്രംശ	-10.8511
▁ഭട്ടതിരി	-10.8511
▁ചുവപ്പ്	-10.8511
▁മഹത്തായ	-10.8511
▁സിംഗപ്പൂര	-10.8511
▁ലണ്ടൻ	-10.8511
▁കൂടുതലായും	-10.8512
▁കമ്മീഷന	-10.8514
▁കോഴ്സ	-10.8514
▁വേറിട്ട	-10.8515
▁വിപ്ലവകാരി	-10.8516
▁ജനപ്രീതി	-10.8516
പരിഷ്കാര	-10.8518
▁മൂക്ക	-10.852
▁വിളിക്കാറുണ്ട്	-10.852
▁ആദരിച്ചു	-10.8524
▁നൂറ്റാണ്ടിനു	-10.853
▁കലാകാരന്മാര	-10.8531
▁ഗ്വാ	-10.8552
ag	-10.8553
കോടതി	-10.8555
▁അവധി	-10.856
▁ഹിന്ദുക്കള	-10.8566
▁വൈകി	-10.8574
ബാഷ്പ	-10.8574
ഘോഷ	-10.8577
▁മുൻകാല	-10.8589
▁നെയ്യ	-10.86
▁വാക്കുകള	-10.8608
▁സംവിധായകന	-10.8611
▁പിടികൂട	-10.8611
▁കുടിയ	-10.8613
ance	-10.8622
▁കമലഹാസൻ	-10.8626
▁താൽക്കാലിക	-10.8626
▁വിവേകാനന്ദ	-10.8626
▁ശ്ലോകങ്ങൾ	-10.8626
▁നിർവ്വഹിച്ച	-10.8626
▁ദൃഢ	-10.8626
▁ചൂഷണ	-10.8626
▁വഴിപാടുകൾ	-10.8626
▁അത്താഴ	-10.8626
▁സമ്പർക്ക	-10.8626
▁കൽക്കട്ട	-10.8626
▁ദഹന	-10.8627
▁അവതരിച്ച	-10.8627
▁സംഘകാല	-10.8627
▁ഭംഗി	-10.8627
▁സ്പെയിൻ	-10.8629
▁1928	-10.863
▁ഉൽഭവ	-10.863
▁ചുരുങ്ങിയ	-10.863
ുണ്ടാവുക	-10.8632
ദുര	-10.8633
▁ഏക്കർ	-10.8641
▁അധ്യാപക	-10.8641
ശില്പ	-10.8644
പ്രക്രിയ	-10.8644
▁നന്മ	-10.8645
▁നിർദ്ദേശിക്ക	-10.8646
▁പുറപ്പെട്ടു	-10.8647
▁1500	-10.8647
▁ജ്യോതിർ	-10.8649
▁സവർണ്ണ	-10.8651
▁തൻറെ	-10.8652
▁വിധിച്ച	-10.8654
▁കപ്പലുകൾ	-10.8655
▁വിവാഹിത	-10.8657
സ്രാവ	-10.8663
▁രക്ഷപ്പെട	-10.8666
▁മില്ലി	-10.8667
▁സമൃദ്ധമായ	-10.8667
ജന്യ	-10.8669
▁വില്ലേജ	-10.8674
▁ആസിഡ	-10.8679
▁പഞ്ചായത്തിലെ	-10.8681
▁പങ്കെടുക്കുന്ന	-10.8683
▁പ്രതിനിധീകരിച്ച	-10.8689
cor	-10.8692
form	-10.8716
▁വർഗ്ഗീകരണ	-10.8728
▁ചിട്ട	-10.873
▁ധാരാളമ	-10.8731
▁സെഞ്ച്വറി	-10.8742
▁ആറന്മുള	-10.8742
▁ആവിർഭാവ	-10.8742
▁പുറപ്പെടുവിച്ച	-10.8742
▁പ്രേക്ഷക	-10.8742
▁പ്രൈമറി	-10.8742
▁പ്രീമിയ	-10.8742
▁രാമചന്ദ്രൻ	-10.8742
▁ബ്രസീൽ	-10.8742
▁പാർവതി	-10.8742
▁വെങ്കല	-10.8742
▁ഒന്നാമൻ	-10.8743
▁ലൈസൻസ	-10.8743
▁രവിവർമ്മ	-10.8744
▁ശതമാനത്തോളം	-10.8744
പർവ്വം	-10.8745
▁അന്തിമ	-10.8746
▁പരിശുദ്ധ	-10.8747
▁അസീസ്	-10.8748
▁നല്കുന്ന	-10.8749
▁സീസൺ	-10.8749
▁പ്രതാപ	-10.8755
പ്രകാരമുള്ള	-10.8764
▁ചിറകുകള	-10.8767
▁പെറു	-10.8773
▁ചിത്രത്തിലൂടെ	-10.8775
chi	-10.8775
കേരളത്തിലെ	-10.8785
വസ്തുവ	-10.8791
▁സമീപമുള്ള	-10.8791
ീകരിക്കപ്പെട്ട	-10.8796
▁മൂന്നോ	-10.8799
▁ഷേ	-10.8807
▁കുറുപ്പ	-10.8808
ിലേക്കെത്ത	-10.8815
ൊഴിയ	-10.8825
ഗായക	-10.8834
est	-10.8844
▁ആളുകള	-10.8845
▁റാങ്ക	-10.8845
ാടിസ്ഥാനത്തിൽ	-10.8859
▁വൃശ്ചിക	-10.886
▁ആതിഥേയ	-10.886
▁വിക്ടോറിയ	-10.886
▁വിപണന	-10.886
▁ശസ്ത്രക്രിയ	-10.886
▁മാന്ത്രിക	-10.886
▁ഉർദു	-10.886
▁ജമാഅത്ത	-10.886
▁ഹിന്ദുസ്ഥാനി	-10.886
▁വഴിത്തിരിവ	-10.886
▁കൽക്കത്ത	-10.886
▁അഖിലേന്ത്യാ	-10.886
ാഞ്ജലി	-10.886
▁നൈട്രജൻ	-10.8861
▁നിരോധിക്ക	-10.8862
▁രൂപീകൃതമായ	-10.8862
▁വഞ്ചി	-10.8863
▁നായനാർ	-10.8864
▁ഉപദ്വീപ	-10.8865
▁യൂണിയന്റെ	-10.8866
▁പ്രേം	-10.8867
▁ഋഷി	-10.8868
[	-10.8869
▁പ്രചരണ	-10.8871
▁പിന്മാറ	-10.8872
▁ഉണ്ടാകാറുണ്ട്	-10.8876
ിനാൽ	-10.8877
രാത്രി	-10.8878
▁ഫോർട്ട്	-10.8879
▁ജനവാസ	-10.8881
സിനിമ	-10.8888
▁പരാജയപ്പെട	-10.8889
ജ്യോതിശാസ്ത്രജ്ഞ	-10.8891
ഖനന	-10.8897
▁108	-10.8897
▁പുറത്താക്കി	-10.89
▁തടഞ്ഞു	-10.8908
▁കൂടിയുണ്ട്	-10.8915
▁പ്രയോഗിക്ക	-10.8918
▁ഏഴാമ	-10.8918
ബാഹു	-10.8922
▁കൊക്കോ	-10.8922
പാണ്ഡവ	-10.8925
▁രതി	-10.8931
▁സർവ്വീസ	-10.8931
▁സ്ഥലനാമ	-10.8938
▁ചിന്ന	-10.8938
ോണിക്	-10.8951
▁വിൻസെൻറ	-10.8975
▁അന്വേഷിച്ച	-10.8979
▁നാളികേര	-10.8979
▁പ്രതിനിധാനം	-10.8979
▁ഉഗാണ്ട	-10.8979
▁ഭഗവാന്റെ	-10.8979
▁പിന്നാലെ	-10.8979
▁പുകയില	-10.8979
▁വഴിപാട്	-10.8979
▁മെഡൽ	-10.898
▁കോർപ്പറേഷ	-10.898
▁സിംഹാസന	-10.8981
▁പ്രസക്ത	-10.8982
▁മരണാനന്തര	-10.8982
▁ജീവശാസ്ത്ര	-10.8989
സൗകര്യ	-10.899
പ്രകടന	-10.899
വികസന	-10.8991
ശാന്തി	-10.8991
▁സച്ചിന	-10.8994
▁തടവി	-10.8995
▁ആഗ്രഹിച്ച	-10.8995
pu	-10.9
▁പേരിലുള്ള	-10.9002
ഭോജ	-10.9006
▁ഉമർ	-10.9007
സ്ലാവ	-10.9009
▁അകലെയുള്ള	-10.901
▁രചിക്ക	-10.9016
മധുരം	-10.9019
▁ഫലപ്രദ	-10.9021
▁കൺസ	-10.9021
▁സെക്രട്ടറിയായി	-10.9025
ത്യാഗ	-10.9027
തേജസ്	-10.9029
▁നീട്ടി	-10.9036
▁തൊഴിലാളികളുടെ	-10.9037
പേരൂർ	-10.9053
▁പ്രോഗ്രാമിങ്	-10.9056
ിയ്ക്കപ്പെട്ട	-10.9061
ശമന	-10.9084
▁കുറിപ്പ	-10.9085
▁ലെൻസ	-10.9089
▁ആഭിമുഖ്യ	-10.9099
▁അദ്വൈത	-10.9099
▁ജലവൈദ്യുത	-10.9099
▁തൊടുപുഴ	-10.9099
▁നീലത്തിമിംഗില	-10.9099
▁പാത്രിയർക്കീസ	-10.9099
▁മൂകാംബിക	-10.9099
▁മൂവാറ്റുപുഴ	-10.9099
▁മൈക്കെലാഞ്ചലോ	-10.9099
▁സൈദ്ധാന്തിക	-10.9099
▁formula	-10.9099
▁ഘോഷയാത്ര	-10.9099
▁ബിസിനസ്	-10.9099
▁കാന്തിമാന	-10.9099
▁കൊളംബിയ	-10.9099
▁സമ്പൂർണ്ണ	-10.91
ത്തിനിടെ	-10.91
ാഭിനയ	-10.91
ക്കുറവ്	-10.91
▁അവശേഷിക്കുന്ന	-10.91
▁വ്യോമസേന	-10.91
ാഹം	-10.9103
▁1941	-10.9105
▁തുളു	-10.9107
സാന്നിദ്ധ്യ	-10.9111
ച്ചേർന്ന	-10.9112
സ്വാതന്ത്ര്യ	-10.9112
പിന്നീട്	-10.9113
▁ആന്തര	-10.9115
▁ചിട്ടപ്പെടുത്ത	-10.9116
▁വിശ്വസ്ത	-10.9121
ആംഗലേയം	-10.9124
▁സ്വത്ത	-10.9131
▁ആരംഭിക്കുകയും	-10.9131
കളിലൊന്നായ	-10.9131
▁മഞ്ചേരി	-10.9132
▁വാല്യ	-10.9134
▁ഇതിലൂടെ	-10.9135
▁ബീറ്റ	-10.9135
age	-10.9138
▁വായ്പ	-10.9139
വാങ്ങ	-10.9146
ld	-10.9152
▁റോയ്	-10.9152
കുത്തി	-10.9167
ous	-10.9168
▁വായനക്കാര	-10.9168
െഴുത്ത്	-10.9173
ുണ്ടു്	-10.9177
▁അവകാശപ്പെട്ട	-10.9184
യാകുന്ന	-10.9187
▁ആകർഷിക്കുന്ന	-10.9198
▁നയിക്കുന്ന	-10.9199
▁തയ്യാറാക്കുന്ന	-10.9206
ിട്ടുണ്ടെന്ന	-10.9209
▁ഔപചാരിക	-10.9221
▁നാടുകടത്ത	-10.9221
▁പര്യവേഷണ	-10.9221
▁മെഡിറ്ററേനിയൻ	-10.9221
▁ലണ്ടനിലെ	-10.9221
▁അർജുന	-10.9221
▁ന്യൂട്രോണ	-10.9221
▁താൻസാനിയ	-10.9221
▁ക്വാണ്ടം	-10.9221
▁ചലഞ്ചേഴ്	-10.9221
▁ഏതൊരു	-10.9221
▁ജൂണിൽ	-10.9222
▁വാസ്തുശില്പ	-10.9222
▁വിശകലനം	-10.9223
▁വിഭാവന	-10.9223
▁അസുര	-10.9224
▁പരുത്തി	-10.9224
▁അധികാരത്തിലെത്ത	-10.9225
▁1929	-10.9226
▁നിർമ്മിതി	-10.9228
ക്കുറിപ്പ	-10.9228
▁അയിത്ത	-10.9232
▁നോക്കുമ്പോൾ	-10.9232
▁വിലാസ	-10.9235
ഹൃദയ	-10.9236
▁പെട്ര	-10.9239
▁ആകർഷിക്ക	-10.9249
ിസ്ഥാൻ	-10.9254
▁ആസ്ഥാനമാക്കി	-10.9268
100	-10.927
▁വേണമെന്ന	-10.9283
▁ത്രിത്വ	-10.9286
▁അനേക	-10.9289
▁ലക്ഷ്യമാക്കി	-10.9301
▁ഒന്നാമന	-10.9304
▁പരിചയപ്പെടുത്ത	-10.9325
▁തേക്ക	-10.9327
വാർത്ത	-10.9338
▁ഇസ്രായേല	-10.9345
▁കാലക്രമേണ	-10.9345
▁ഡയറക്ടറ	-10.9345
▁പ്രസാധക	-10.9345
▁യാക്കോബായ	-10.9345
▁വാഗ്ദാനം	-10.9345
▁ശ്രീനിവാസ	-10.9345
▁സൂചിപ്പിച്ച	-10.9345
▁രാജസ്ഥാൻ	-10.9345
▁പ്രസ്താവിച്ച	-10.9345
▁ആദർശ	-10.9345
▁പ്രബോധന	-10.9345
▁ഗരുഡ	-10.9345
▁സാമന്ത	-10.9345
▁ഗവർണറ	-10.9345
▁നശിപ്പിച്ച	-10.9346
▁ഡച്ചുകാര	-10.9346
▁ശുഭ	-10.9347
▁പിരിച്ചുവിട	-10.9348
▁കുള്ളൻ	-10.9348
▁തിരുവോണ	-10.9349
▁1938	-10.935
▁യുവജന	-10.9351
ence	-10.9352
▁ബോക്സ	-10.9354
▁പതിമൂന്നാം	-10.9354
ാവിഷ്	-10.9355
വ്യവസായ	-10.9361
ിരുന്നുവെന്നും	-10.9364
▁നഗർ	-10.9367
ക്കനുസരിച്ച	-10.9377
▁തിരുവിതാംകൂറിലെ	-10.9379
▁വാദിക്കുന്നു	-10.9381
ass	-10.9389
▁ആളുകളെ	-10.9397
തുടർന്ന്	-10.9401
തിർത്തി	-10.9408
ംകൂറ	-10.9414
▁കീഴിലായിരുന്നു	-10.9418
ace	-10.9422
▁നെറ്റി	-10.9423
ction	-10.9426
▁പിതാവിന	-10.943
▁പുറകില	-10.9433
▁പാതിരി	-10.9445
അബ്ദു	-10.9454
www	-10.947
▁മാതാപിതാക്കള	-10.947
▁ജനസാന്ദ്രത	-10.947
▁യൂണിവേഴ്	-10.947
▁റിപബ്ലിക്	-10.947
▁തൃക്കാക്കര	-10.947
▁ഇബ്നു	-10.947
▁രാജകീയ	-10.947
▁ഡ്രൈവ	-10.9471
▁പ്രഭാവം	-10.9471
section	-10.9471
▁പ്രഭാത	-10.9472
▁സ്കോട്ട്	-10.9472
▁ആവർത്തിച്ച	-10.9473
ാനാവാത്ത	-10.9476
▁മാർക്കറ്റ	-10.9476
▁ശ്രീനാരായണ	-10.9476
▁ലോപിച്ച	-10.9477
▁1916	-10.9479
▁സെന്ററ	-10.9481
▁വ്യാപിക്ക	-10.9481
വിടുന്ന	-10.9482
പ്രാപ്തി	-10.9483
▁ഇൻഡോ	-10.9484
ാദ്രി	-10.9484
▁1919	-10.9493
▁യുവതി	-10.9496
▁ബർമ്മ	-10.9508
dia	-10.9522
ശോഷ	-10.9533
▁കിഴക്കുഭാഗത്ത	-10.9538
one	-10.9553
▁ബാർബ	-10.9553
▁പീഡ	-10.9573
▁കുറവായ	-10.9574
ങ്ങളിലെല്ലാം	-10.9576
ുണ്ടായിരിക്കും	-10.9584
പ്പെടുത്തുകയ	-10.9594
▁സങ്കീർണ	-10.9596
▁അസോസിയേഷൻ	-10.9596
▁ഒട്ടുമിക്ക	-10.9596
▁ദേശാഭിമാനി	-10.9596
▁ദേശീയോദ്യാന	-10.9596
▁മുനിസിപ്പൽ	-10.9596
▁പീരങ്കി	-10.9596
▁ശ്വാസകോശ	-10.9596
▁ഉപജീവന	-10.9596
▁അപരനാമ	-10.9596
▁ചിത്തിര	-10.9596
▁മലനിരകൾ	-10.9597
▁വികസിക്ക	-10.9597
▁വടക്കുംനാഥ	-10.9597
▁അനുഷ്ഠിക്ക	-10.9598
▁ഇറാൻ	-10.9599
▁ആവേശ	-10.9599
▁കല്പിച്ച	-10.9599
വസ്തു	-10.96
▁ബ്രോഡ	-10.9603
▁ധനകാര്യ	-10.9603
▁എല്ലാവർക്കും	-10.9605
▁ഋതു	-10.9608
ത്തിനെതിരേ	-10.9611
▁അദ്ദേഹത്തിൻറ	-10.9613
▁റിച്ചി	-10.9614
▁രോഗാണു	-10.9615
▁മനസ്സിലാക്കാം	-10.962
രാജാക്കന്മാര	-10.9627
▁ഡാർവിന്റ	-10.9648
▁സാമ്രാജ്യത്വ	-10.965
▁കനാല	-10.9671
ിയ്ക്കാൻ	-10.9678
▁അവസാനത്തോടെ	-10.9678
▁കേന്ദ്രമാക്കി	-10.9708
▁എന്നിവിടങ്ങള	-10.9718
▁വൈകുന്നേര	-10.9725
▁പ്രസ്താവന	-10.9725
▁അഗാധ	-10.9725
▁ആന്റണി	-10.9725
▁അധ്യക്ഷ	-10.9725
▁കൈമാറ്റം	-10.9725
▁ഒതുങ്ങി	-10.9725
▁അഗ്നിപർവ്വത	-10.9725
ഓക്സൈഡ	-10.9725
▁സിംഗപ്പൂർ	-10.9725
ദ്രോഹ	-10.9725
▁മൈസൂര	-10.9726
▁നിർവചന	-10.9726
▁നിർത്തലാക്ക	-10.9727
▁ദുർബല	-10.9727
▁ഡിവിഷന	-10.973
▁നൽകപ്പെട്ട	-10.973
▁മസ്ജിദ	-10.9731
▁മഹാകവി	-10.9732
▁ആന്തരിക	-10.9732
▁ഉദര	-10.9734
▁വേനൽക്കാലത്ത്	-10.9736
▁1918	-10.9736
▁ചേരമാൻ	-10.9738
▁പ്ലാസ്റ്റിക്	-10.9739
▁രൂപപ്പെടുത്തിയ	-10.9746
▁മെഗാ	-10.975
ക്രിസ്തു	-10.9753
▁എന്നിവയെല്ലാം	-10.9755
▁മുറിച്ചു	-10.976
▁പുള്ളി	-10.9762
ഭക്ഷണ	-10.9763
രാജാവ്	-10.9784
▁നീണ്ടുനിന്ന	-10.9793
ത്തോടനുബന്ധിച്ച	-10.9795
▁ഈറിസ	-10.9796
ാഗ്നി	-10.9797
ition	-10.9825
▁കെട്ടിയാട	-10.9833
രാവണ	-10.9836
▁നാലാമ	-10.9837
നിശ്ചയ	-10.9842
സമേത	-10.9843
▁ഉറങ്ങ	-10.9849
▁പേരില	-10.9853
▁ലഭ്യമ	-10.9854
▁അല്ലാഹുവ	-10.9854
▁ആപ്ലിക്കേഷന	-10.9854
▁അജ്ഞാത	-10.9854
▁ധന്വന്തരി	-10.9854
▁മാർത്തോമാ	-10.9854
▁ശ്രീകോവിൽ	-10.9854
▁നിർമ്മാതാവ	-10.9854
▁ശമ്പള	-10.9855
▁സ്പേസ്	-10.9855
▁വിസമ്മതിച്ച	-10.9855
▁തുടക്കമിട്ട	-10.9855
▁നിലവിലെ	-10.9855
▁ക്രിസ്തുമസ്	-10.9855
മീമാംസ	-10.9856
▁മേൽശാന്തി	-10.9856
▁ബ്രിട്ടൻ	-10.9856
▁സർക്കാറ	-10.9856
▁പുറത്തുവന്ന	-10.9857
▁1935	-10.9858
▁ക്രിസ്തുവിന്റെ	-10.986
▁ഗ്രീൻ	-10.9861
▁ഗ്നു	-10.9862
▁ഇന്റർനെറ്റ	-10.9862
▁1912	-10.9862
▁1925	-10.9862
▁ഹരപ്പ	-10.9863
▁നിയമനിർമ്മാണ	-10.9863
▁ചെറുകിട	-10.9865
▁ശ്രീശാന്ത	-10.9867
▁തിരിക്കാം	-10.987
▁ഷീല	-10.9877
▁ശ്രദ്ധേയനായ	-10.9882
▁അക്കാലത്ത	-10.9886
▁തിയ്യ	-10.9887
സ്ഥിര	-10.9899
▁കാന്തികക്ഷേത്ര	-10.9901
തരത്തിലുള്ള	-10.9902
▁വിളിക്കപ്പെട	-10.9906
പെയിന്റിങ്ങ	-10.9911
ുകാരും	-10.9914
▁പുറപ്പെടുന്ന	-10.9923
▁ഫലപ്രദമായ	-10.9942
▁പിന്തുടര	-10.9944
▁അന്തരിച്ച	-10.9975
▁ക്രിസ്തുവർഷ	-10.9975
ുകയുള്ളു	-10.9977
▁ആഗിരണം	-10.9986
▁ആമസോൺ	-10.9986
▁കാനേഷുമാരി	-10.9986
▁ട്വന്റി	-10.9986
▁പരമോന്നത	-10.9986
▁പ്രൊട്ടസ്റ്റന്റ	-10.9986
▁ബ്യൂറോ	-10.9986
▁മൻമോഹൻ	-10.9986
▁വിക്ഷേപിച്ച	-10.9986
▁ഓറഞ്ച്	-10.9986
▁ബാറ്റിസ്റ്റ	-10.9986
▁ഭരതനാട്യ	-10.9986
▁മെത്രാൻ	-10.9986
▁വ്യാപ്തി	-10.9986
▁അലങ്കരിച്ച	-10.9986
odice	-10.9987
▁ചെലവഴിച്ച	-10.9987
▁ബച്ചൻ	-10.9987
▁വാസസ്ഥല	-10.9988
▁തുള്ളൽ	-10.9989
▁സ്വയംഭോഗ	-10.9989
▁നീലഗിരി	-10.9989
▁ആൽമര	-10.9991
▁ഡെവലപ്	-10.9995
▁സമാധി	-10.9995
▁രാമകൃഷ്ണ	-10.9995
▁സമയത്താണ്	-10.9995
▁നിരസിച്ച	-11.0004
▁വിശേഷാൽ	-11.0005
▁വർഷങ്ങളായി	-11.0009
വിദഗ്ദ്ധ	-11.001
▁വാഴ്ത്ത	-11.0011
സന്ദേശ	-11.0012
ധ്വനി	-11.0013
▁ഗാർഡ	-11.0018
▁സന്നദ്ധ	-11.0019
ായിത്തീർന്ന	-11.0022
▁ദൈവശാസ്ത്ര	-11.0022
▁പുതുതായ	-11.0035
▁ഇറങ്ങ	-11.0051
▁അൻപത	-11.0059
▁ബോധ്യ	-11.0065
▁വിഭജിക്ക	-11.0069
▁മനോഹര	-11.0074
▁ശുക്രന	-11.0077
▁പ്രോസസ	-11.0086
▁മുകളിലേക്ക	-11.009
▁കമ്പ്യൂട്ടറുകള	-11.0094
▁ഇടവക	-11.0096
ary	-11.0099
▁ഹൈഡ്രോ	-11.0101
▁എഴുപത	-11.0107
കളുടേ	-11.0111
▁ഉല്പാദന	-11.0119
▁ഔഷധസസ്യ	-11.0119
ാന്വേഷണ	-11.0119
▁നമീബിയ	-11.0119
▁നൂറുകണക്കിന	-11.0119
▁ബ്രിട്ടിഷ്	-11.0119
ഭൂഷൺ	-11.0119
▁വയസ്സുള്ളപ്പോൾ	-11.0119
▁വള്ളംകളി	-11.0119
▁പരിഗണന	-11.0119
▁മോസില്ല	-11.012
▁യഥാ	-11.012
▁നീരാവി	-11.012
▁ഇലക്ട്രിക്കൽ	-11.012
▁ക്ഷണിച്ചു	-11.012
▁അന്തർദേശീയ	-11.012
▁ഓക്സൈഡ്	-11.0121
▁ജമ്മു	-11.0121
▁കീർത്തന	-11.0122
▁1927	-11.0123
▁ചിതറി	-11.0123
▁മൗര്യ	-11.0123
▁ധീര	-11.0124
▁നിർണയിക്ക	-11.0129
▁വേണ്ടത്ര	-11.0132
▁കുടുംബാംഗ	-11.0132
▁മതവിശ്വാസ	-11.0133
▁പബ്ലിക്	-11.0139
▁ഡ്യൂ	-11.0141
സാങ്കേതിക	-11.0145
സംരക്ഷണ	-11.0146
കഥാപാത്ര	-11.0146
▁അണ്ണാ	-11.0149
കവാട	-11.015
▁പദ്മ	-11.0157
തിനൊപ്പം	-11.0171
ിക്കൊണ്ടിരുന്ന	-11.0173
▁വംശീയ	-11.0194
▁പെരുമാറ	-11.0216
▁സുകുമാ	-11.0233
▁കുറ്റകൃത്യ	-11.0255
▁നവംബറിൽ	-11.0255
▁രവീന്ദ്ര	-11.0255
▁ഗായത്രി	-11.0255
▁മെമ്മറി	-11.0255
▁നാഗരികത	-11.0255
▁സെൻസസ്	-11.0255
▁ഫിലിപ്പീൻസ	-11.0255
▁മലയോര	-11.0255
▁അക്ബറ	-11.0255
▁പൊതിഞ്ഞ	-11.0255
▁വസതി	-11.0255
▁പൌര	-11.0256
▁ചുറ്റുപാട	-11.0257
▁ലോകപ്രശസ്ത	-11.0257
▁മുത്തപ്പൻ	-11.0257
▁തൊപ്പി	-11.0258
▁മഹാബലി	-11.026
▁വഴക്ക	-11.026
▁1944	-11.026
▁മാർച്ചിൽ	-11.0261
▁വൈറസ്	-11.0261
▁ചരിത്രകാരന്മാര	-11.0262
▁1917	-11.0262
▁നിർദ്ദേശപ്രകാരം	-11.0263
▁തിലക	-11.0265
▁പരാമർശമുണ്ട്	-11.0269
▁ധരിക്കുന്ന	-11.0275
▁പിന്തുണയ്ക്ക	-11.0281
▁ഫ്യൂ	-11.0281
▁പേരുകളിലും	-11.0282
ലിഖിത	-11.0283
സമുദായ	-11.0283
ലഘു	-11.0284
▁കളിക്കാരന	-11.0285
▁ആണെന്ന	-11.0292
▁ഹൗസ്	-11.0303
▁സ്വന്തമായ	-11.0308
ോയിഡ	-11.0308
▁നടുവില	-11.0312
തിനെക്കുറിച്ച്	-11.0316
▁ടീമുകള	-11.0316
▁കഴക	-11.0335
താമസ	-11.0343
mon	-11.0353
▁ഓർത്ത	-11.036
▁മാത്രമെ	-11.0366
കമ്മ്യൂണിസ	-11.0391
▁അഗസ്ത്യ	-11.0391
▁എറണാകുളത്ത	-11.0391
▁മുദ്രാവാക്യ	-11.0392
▁മിഷനറി	-11.0392
▁മോഹൻലാൽ	-11.0392
▁ചുറ്റളവ	-11.0392
▁കുറ്റവാളി	-11.0392
പാർവ്വതീ	-11.0392
▁തിയതി	-11.0392
▁രണ്ടാമത്തേത	-11.0393
▁കുടിവെള്ള	-11.0393
▁അധികാരമേറ്റ	-11.0394
▁രേഖാംശ	-11.0396
ിനുമുൻപ	-11.0398
▁മോചന	-11.0398
▁പിന്തുണയോടെ	-11.0399
▁india	-11.04
▁ഫയൽ	-11.04
ാനിടയാ	-11.04
▁ലിറ്റർ	-11.0404
▁നടന്നുവരുന്ന	-11.0409
മഹർഷി	-11.0421
പരമേശ്വര	-11.0424
▁സിദ്ധിച്ച	-11.044
▁ഒഴിച്ചു	-11.0471
▁നാട്ടുകാര	-11.0485
പാരായണ	-11.0486
▁ഭരണത്തിൻ	-11.0495
ിനെതിരേ	-11.0513
▁ഉപയോക്താക്കൾ	-11.053
▁അനിവാര്യ	-11.053
▁അബൂബക്കർ	-11.053
▁ഡയറക്ടർ	-11.053
▁നിർവ്വഹിക്ക	-11.053
▁പരിശോധിക്ക	-11.053
▁പരിശോധിച്ച	-11.053
▁വിർജീനിയ	-11.053
▁ഇയ്യോബ	-11.053
▁കോമൺവെൽത്ത	-11.053
▁ബ്രിട്ടാനിക്ക	-11.053
▁ലിമിറ്റഡ	-11.053
▁വെനസ്വേല	-11.053
▁അറ്റ്ലാന്റിക്	-11.053
▁നാമനിർദ്ദേശം	-11.053
▁വികസിത	-11.053
▁അരവിന്ദ	-11.053
▁തുളസി	-11.0531
▁അമ്മാവന	-11.0531
ുന്തോറും	-11.0532
▁പ്ലേറ്റോ	-11.0533
▁ക്യൂറി	-11.0533
▁മഹാവിഷ്ണുവിന്റെ	-11.0536
▁അക്ഷരമാല	-11.0538
▁ഭാഗമായിരുന്ന	-11.0542
▁ജനറല	-11.0543
▁വിഷ്ണുവിന്റെ	-11.0543
▁തെലുങ്ക	-11.0547
നിർണയ	-11.0554
ബന്ധിപ്പിക്കുന്ന	-11.0555
ിത്തീർന്ന	-11.0578
▁വിഭജിക്കപ്പെട്ട	-11.0583
▁അയിര	-11.0584
ഗ്രാഫിക്	-11.0604
▁വണ്ണ	-11.0611
▁ഖുറ	-11.0616
▁നൽകുന്നതിന	-11.0633
▁കേടു	-11.0662
▁വിവിധതര	-11.0664
▁ആവശ്യപ്പെട	-11.0666
▁ഇന്ദിരാഗാന്ധി	-11.0671
▁ഓൺലൈൻ	-11.0671
▁കാതോലിക്ക	-11.0671
▁പ്രവണത	-11.0671
▁രതിമൂർച്ഛ	-11.0671
▁ലോകമെമ്പാടും	-11.0671
▁കുമ്മാട്ടി	-11.0671
▁മെഷീൻ	-11.0671
▁വർത്തമാന	-11.0671
▁പതിനായിര	-11.0671
▁മാമാങ്ക	-11.0671
ൊട്ടാകെ	-11.0671
▁തകരാറ	-11.0671
▁നാടകകൃത്ത	-11.0672
▁രഞ്ജി	-11.0672
▁അച്ഛന്റെ	-11.0677
▁കണ്ടെത്തല	-11.0677
▁മുഴുകി	-11.0679
▁വൃഷ	-11.0679
▁ആവർത്തിക്ക	-11.0682
▁കാലഘട്ടത്തിലാണ്	-11.0685
ുന്നവരുണ്ട്	-11.0687
▁ഡെക്കാൻ	-11.0687
▁യേശുദാസ	-11.0704
ഉണ്ടായിരുന്നില്ല	-11.0706
പറമ്പിൽ	-11.073
▁യുവാവ	-11.0739
▁മാലിക്	-11.0741
▁ഉത്ഭവിച്ച	-11.0753
▁ഇരിക്കുന്ന	-11.0756
▁കത്തിച്ച	-11.076
ുകയുമുണ്ടായി	-11.0767
ിരട്ടി	-11.0776
▁ധാതുക്കള	-11.0793
വിശകലന	-11.0813
▁യാഥാർത്ഥ്യ	-11.0814
▁സുന്നഹദോസ	-11.0814
▁അച്ചുതണ്ട	-11.0814
▁ഊഷ്മാവ	-11.0814
▁പെരുന്നാൾ	-11.0814
▁രാഘവൻ	-11.0814
▁ഹുസൈൻ	-11.0814
▁പടയോട്ട	-11.0814
▁നിത്യേന	-11.0814
▁ദേശാടന	-11.0814
▁എന്നിവയാണവ	-11.0814
▁പസഫിക്	-11.0814
▁വൃക്ക	-11.0814
▁പിളർപ്പ	-11.0814
▁അറസ്റ്റു	-11.0815
▁സാധ്യമാക്ക	-11.0816
▁പഞ്ചവാദ്യ	-11.0817
trans	-11.0817
മഞ്ജരി	-11.0817
▁താത്രി	-11.0821
ശിഖര	-11.0822
▁ഭൂവിഭാഗ	-11.0823
▁പിന്നണി	-11.0828
▁ഫയല	-11.0842
സമ്മേളന	-11.085
മാധ്യമ	-11.0903
പെടുത്തി	-11.0925
പർവ്വത	-11.0957
▁കംപ്യൂട്ടർ	-11.0959
▁ഗൂഢാലോചന	-11.0959
▁തിരുവില്വാമല	-11.0959
▁ഫോസ്ഫറസ	-11.0959
▁മദിരാശി	-11.0959
▁മൃദംഗ	-11.0959
▁നേപ്പാൾ	-11.0959
▁ചിന്താഗതി	-11.0959
▁സെൽഷ്യസ	-11.0959
▁ഉൽപ്പന്ന	-11.0959
▁സാവധാന	-11.0959
▁പ്രചരിപ്പിച്ച	-11.0959
മുഹൂർത്ത	-11.0959
▁കൃഷ്ണനാട്ട	-11.0959
▁അനുഭവിച്ച	-11.0959
▁മൾട്ടി	-11.096
▁മുഴുവനായ	-11.096
▁ഹിമയുഗ	-11.096
▁മാരാർ	-11.096
▁നക്ഷത്രരാശി	-11.0961
▁ലെബന	-11.0962
▁ഉണ്ടെന്ന്	-11.0962
▁തമിഴ്നാട്ടിലെ	-11.0962
▁റിലീസ	-11.0963
▁പാർശ്വ	-11.0964
▁1926	-11.0964
▁കുറവായിരിക്കും	-11.0964
▁ബ്രഹ്മപുത്ര	-11.0965
_1	-11.0965
▁ആയുസ്സ	-11.0966
▁ശാസ്താവ്	-11.0966
▁1911	-11.0967
▁കൊല്ലവർഷം	-11.0969
▁ആവരണ	-11.097
▁നാട്യശാസ്ത്ര	-11.0971
▁ഭാഗത്തുള്ള	-11.0976
▁ചരിവ	-11.0987
▁പ്രചാരത്തിലുണ്ട	-11.0988
നടപടി	-11.0997
▁തോതില	-11.0999
കാലഘട്ടത്തിൽ	-11.1001
ത്തിലേർപ്പെട	-11.1002
പദാർത്ഥ	-11.1005
▁വള്ളുവനാട	-11.1037
▁പിന്തുടർച്ച	-11.1043
▁അടിയന്തര	-11.1105
▁സമീപിച്ച	-11.1106
▁ട്രെയിന	-11.1106
▁ഫ്രാഞ്ചൈസി	-11.1106
▁കാർട്ടൂൺ	-11.1106
▁മേൽക്കോയ്മ	-11.1106
▁സാഹസിക	-11.1106
▁ഉപജ്ഞാതാവ	-11.1106
▁ഗൗതമ	-11.1106
▁നേടിക്കൊടുത്തു	-11.1106
▁ഓർവെൽ	-11.1106
▁ക്രിസ്തുവിനു	-11.1106
▁പിളർന്ന	-11.1106
▁റദ്ദാക്ക	-11.1106
▁ഉരഗ	-11.1107
▁കേണൽ	-11.1107
▁നൂതന	-11.1108
▁1923	-11.111
▁1904	-11.111
▁പട്ടേൽ	-11.111
▁ദൈർഘ്യം	-11.1111
▁1943	-11.1111
ാഖ്യാന	-11.1113
▁നെഹ്രുവിന്റെ	-11.1115
▁ചരിത്രകാരനായ	-11.1116
▁സോണിയ	-11.1117
ാബാദ്	-11.1117
▁ഉണക്ക	-11.1118
എന്നിവരായിരുന്നു	-11.1123
▁കരിങ്കല്ല	-11.1128
▁നടത്തപ്പെടുന്ന	-11.1136
ഭഗവതി	-11.1146
കൊട്ടാര	-11.1147
▁അളവില	-11.116
▁കുറയുന്ന	-11.1226
സഹസ്ര	-11.1232
▁എൺപത	-11.1234
▁കമ്യൂണിസ	-11.1255
ഡബ്ല്യു	-11.1255
▁കാശ്മീര	-11.1255
▁ചന്ദ്രഗുപ്ത	-11.1255
▁പട്ടാമ്പി	-11.1255
▁രജിസ്റ്റർ	-11.1255
▁വാർത്താവിനിമയ	-11.1255
▁വ്യഞ്ജന	-11.1255
▁സന്ന്യാസ	-11.1255
▁യാഹൂ	-11.1255
▁ജഡ്ജി	-11.1255
▁വരൾച്ച	-11.1255
▁ഇബ്സ	-11.1258
▁വകഭേദ	-11.1258
ക്കുറുപ്പ	-11.1259
▁കുലശേഖര	-11.1259
▁ഹിറ്റ്ലറ	-11.126
▁നവാബ	-11.1264
▁മോസ്കോ	-11.1264
▁പ്രിന്റ	-11.1267
▁പൊരുത	-11.1274
▁ബന്ധുക്കള	-11.1283
tive	-11.1286
ചലച്ചിത്ര	-11.1295
നിക്ഷേപ	-11.1298
▁പ്രവാസി	-11.1298
ബ്രാഹ്മണ	-11.1298
▁രക്ഷപെട	-11.1301
▁പോളണ്ട	-11.1304
▁ബ്രാൻഡ	-11.1314
▁ആദരിക്ക	-11.1314
ാറുണ്ടായിരുന്നു	-11.1328
▁പ്രതികരിച്ച	-11.1341
ധ്യാപക	-11.1365
▁സാദ്ധ്യമ	-11.1368
▁ഡാർവിന	-11.1382
കഴിഞ്ഞാൽ	-11.1389
സാഹിത്യകാരന	-11.1399
മിശ്ര	-11.14
▁പുനർനാമകരണം	-11.1407
▁പ്രസിഡൻറ	-11.1407
▁ഭൌതിക	-11.1407
▁കളരിപ്പയറ്റ	-11.1407
▁നിയന്ത്രിച്ച	-11.1407
▁വള്ളത്തോൾ	-11.1407
▁ഐപിഎൽ	-11.1407
▁പതിറ്റാണ്ട	-11.1407
▁ത്യാഗരാജ	-11.1407
▁അർമീനിയ	-11.1407
▁ക്ലോറൈഡ	-11.1407
▁അഹിംസ	-11.1407
▁ദമ്പതികള	-11.1407
▁ചതുപ്പു	-11.1407
▁നിരൂപണ	-11.1407
▁സോഫ്റ്റ്വെയറ	-11.1408
▁കുരങ്ങ	-11.1409
▁പരിഷ്കാരങ്ങൾ	-11.141
▁ചോദിക്ക	-11.1412
ide	-11.1413
▁സാധ്യതയുണ്ട്	-11.1414
മണിയോടെ	-11.1414
▁പരിഷ്കരിച്ച	-11.1416
▁നില്ക്കുന്ന	-11.1422
ോടനുബന്ധിച്ച്	-11.143
കാലത്താണ്	-11.1444
ചക്രവർത്തി	-11.1453
ുയർന്ന	-11.1454
▁പരമശിവന	-11.1462
മുഖ്യമന്ത്രിയായി	-11.1462
▁അഭിനയിക്ക	-11.1476
▁വൈക്കത്ത	-11.1476
▁കുന്നുകള	-11.1488
▁പെയിന്റ	-11.1495
▁നിലയ്ക്ക	-11.15
ight	-11.1518
▁മുപ്പത്തി	-11.1537
▁വിശ്വാസികള	-11.1544
ാവശ്യങ്ങൾക്ക	-11.155
ലാൻഡി	-11.1552
▁പൂർത്തിയാക	-11.156
▁പോർച്ചുഗീസുകാർ	-11.1561
▁വൻതോതിൽ	-11.1561
▁സമകാലീന	-11.1561
▁സെപ്റ്റംബറിൽ	-11.1561
▁പീപ്പിൾസ്	-11.1561
▁മംഗോളിയ	-11.1561
▁ദക്ഷിണാമൂർത്തി	-11.1561
▁ശുക്ല	-11.1561
▁പിണറായി	-11.1561
▁ചികിൽസ	-11.1561
▁പറവൂർ	-11.1561
▁ഫാക്ടറി	-11.1561
▁വൈകാതെ	-11.1561
▁ലക്ഷ്മീ	-11.1561
▁കലാമണ്ഡലം	-11.1561
▁തോല്പിച്ച	-11.1561
▁ദേശീയപതാക	-11.1561
▁നടനുള്ള	-11.1561
▁സെക്കൻഡ	-11.1561
മ്പാടും	-11.1562
ോപനിഷത്ത	-11.1562
മർഹിക്കുന്ന	-11.1562
▁സേതു	-11.1562
▁പത്മശ്രീ	-11.1562
ശീർഷ	-11.1562
▁പര്യായ	-11.1562
▁പട്ടിണി	-11.1564
▁കൗമാര	-11.1565
ുറപ്പിക്ക	-11.1565
▁ബ്രഹ്മാവ്	-11.1567
▁മായാവി	-11.157
▁വിരമിക്ക	-11.1574
ിപ്പിക്കാന	-11.1578
▁അടുത്തകാലത്ത	-11.1582
▁ക്രമീകരിച്ച	-11.1595
നിയന്ത്രണ	-11.1608
▁ഉറപ്പാക്ക	-11.1614
മ്പാടി	-11.1638
മുറുക്ക	-11.1642
ചേർത്ത	-11.165
▁റൈറ്റ	-11.1663
▁സ്കൂളുകള	-11.1672
act	-11.1681
തിനുപയോഗിക്കുന്ന	-11.1702
▁അടയാളപ്പെടുത്ത	-11.1709
ഭ്രമ	-11.1717
▁എൻജിനീയറ	-11.1717
▁ഏപ്രിലിൽ	-11.1717
▁കാശ്മീർ	-11.1717
▁പരിശുദ്ധാത്മാവ	-11.1717
▁പെട്രോളിയം	-11.1717
▁വിയറ്റ്നാമ	-11.1717
▁സംപ്രേഷണം	-11.1717
▁അവലംബിച്ച	-11.1717
▁തള്ളിക്കളയ	-11.1717
▁പെരുമ്പട	-11.1717
▁മാർപാപ്പ	-11.1717
▁ശർക്കര	-11.1717
▁മാലിന്യ	-11.1717
▁പരിശീലക	-11.1717
▁പ്രസ്താവിക്ക	-11.1717
▁കൂടിക്കാഴ്ച	-11.1717
▁വക്താവ	-11.1717
▁എന്നപേരിൽ	-11.1717
▁കൽക്കരി	-11.1717
▁കോമൺ	-11.1718
▁കൂറ്റൻ	-11.1718
▁തിരുവമ്പാടി	-11.1718
▁ഖനനം	-11.172
▁പ്രളയ	-11.172
▁താലിബാന	-11.172
▁മത്തായി	-11.172
▁നാല്പത	-11.1721
▁ചൂണ്ട	-11.1722
▁സമവാക്യ	-11.1722
▁പ്രിൻസിപ	-11.1723
▁ആർത്തവ	-11.1723
▁1913	-11.1725
ആമത്തെ	-11.1742
▁പുത്രന്മാര	-11.1765
സാംസ്കാരിക	-11.1767
▁പത്രോസ	-11.177
പ്രസാദ	-11.177
▁രമണ	-11.1799
▁ഉപയോഗിച്ചുവര	-11.1809
▁ശിഷ്യന്മാര	-11.1832
ക്കണക്ക	-11.1851
ാഭിഷേകം	-11.1864
▁ചാമ്പ്യൻ	-11.1876
വിശ്ലേഷണ	-11.1876
▁കശുവണ്ടി	-11.1876
▁കേംബ്രിഡ്	-11.1876
▁താലിബാൻ	-11.1876
▁പ്രാതിനിധ്യ	-11.1876
ഭോക്താ	-11.1876
▁ഇസ്രായേൽ	-11.1876
▁ദക്ഷിണധ്രുവ	-11.1876
▁ദമയന്തി	-11.1876
▁പൂന്തോട്ട	-11.1876
▁സ്റ്റീഫൻ	-11.1876
ുമ്പോഴേക്കും	-11.1876
▁ജീവജാലങ്ങള	-11.1876
▁ഐക്യനാടുകൾ	-11.1876
▁പൊങ്കാല	-11.1876
▁ജ്യോതിശ്ശാസ്ത്ര	-11.1876
▁അഭ്യർത്ഥി	-11.1876
▁വർധിപ്പിക്ക	-11.1876
▁ആർട്സ്	-11.1876
▁റൌണ്ട	-11.1876
▁ടെലിഫോൺ	-11.1876
▁വാസുദേവൻ	-11.1876
മേനോന്റെ	-11.1876
▁ജെറോം	-11.1876
▁അലങ്കരിക്ക	-11.1876
▁ഏർപ്പാട	-11.1876
▁റൗണ്ട	-11.1877
▁ആലേഖന	-11.1877
സംബന്ധിയായ	-11.1878
▁മൂന്നിലൊന്ന	-11.1878
▁വസ്ത്രധാരണ	-11.1878
ൻഷ്യൽ	-11.1879
▁ദർശിക്ക	-11.1887
▁വ്യക്തമല്ല	-11.1888
▁കൊതുക	-11.1899
ഊ	-11.1928
ഗാന്ധി	-11.1928
വിപ്ലവ	-11.1928
ൊഴിഞ്ഞ	-11.1935
▁പരാമർശിക്കപ്പെട	-11.1948
▁ചാപ്ലിന	-11.1968
ju	-11.2002
മാരംഭിച്ചു	-11.2016
ശുശ്രൂഷ	-11.2037
▁ആനുകാലിക	-11.2037
▁ആറാട്ടുപുഴ	-11.2037
▁ആർക്കിമിഡീസ	-11.2037
▁മുന്നറിയിപ്പ	-11.2037
▁മോഹിനിയാട്ട	-11.2037
▁വിയറ്റ്നാം	-11.2037
▁മലമ്പുഴ	-11.2037
▁ഹൃദയാഘാത	-11.2037
national	-11.2037
▁അന്വേഷിക്ക	-11.2037
▁എഡിസണ	-11.2037
▁തലച്ചോറ	-11.2037
▁വഴിയൊരുക്ക	-11.2037
▁ആൽബർട്ട്	-11.2037
▁ജൂനിയർ	-11.2037
▁ഹിജ്റ	-11.2037
▁ഉല്പത്തി	-11.2037
▁മേൽക്കൂര	-11.2037
▁ഫ്രാങ്ക്	-11.2037
ടെർമിന	-11.2037
▁സോപാന	-11.2037
▁കാൽസ്യം	-11.2037
▁ഭിക്ഷ	-11.2038
▁കോമഡി	-11.2038
▁നിലവിലിരുന്ന	-11.2038
▁പന്തളം	-11.2039
▁പേറ്റന്റ	-11.2039
▁ലോറൻസ	-11.2039
കളെപ്പറ്റി	-11.204
▁ജൈനമത	-11.204
▁അണുബാധ	-11.2041
▁പാണ്ഡവർ	-11.2041
▁ഭൂപട	-11.2041
ബന്ധിച്ചിടത്തോളം	-11.2042
▁1906	-11.2042
▁സഹായകമായി	-11.2043
▁കല്പിക്ക	-11.2047
▁വാദ്യോപകരണ	-11.2067
▁കാടുകള	-11.2082
നാലമ്പലത്തിനകത്ത	-11.2085
▁പ്രതിഫലിപ്പിക്ക	-11.2103
▁പരിഗണിക്കപ്പെട	-11.2118
ചിഹ്ന	-11.2151
▁സഹകരിച്ച	-11.2164
land	-11.2184
▁അവതരണ	-11.2185
▁കൊത്തുപണി	-11.2201
▁ജുമുഅ	-11.2201
▁രക്തസാക്ഷി	-11.2201
▁അഹമ്മദ്	-11.2201
▁ഉറുഗ്വേ	-11.2201
▁ഏറ്റുവാങ്ങ	-11.2201
▁കൂത്തമ്പല	-11.2201
▁മെമ്മോറിയൽ	-11.2201
▁അർബുദ	-11.2201
▁പ്രാബല്യ	-11.2201
▁ഇക്കാലത്താണ്	-11.2201
▁ജെറമിയ	-11.2201
▁മാലിദ്വീപ	-11.2201
▁ക്ഷീണ	-11.2201
▁കൂട്ടക്കൊല	-11.2201
▁പ്രേരണ	-11.2201
▁പിന്നോക്ക	-11.2201
▁രാമാനുജ	-11.2201
▁കോളെജ	-11.2201
▁പ്രകൃതിദത്ത	-11.2201
▁വെളുപ്പ	-11.2201
▁വംശജർ	-11.2202
▁അങ്ങോട്ട	-11.2202
▁ബലിക്കല്ല	-11.2202
▁വാചക	-11.2202
▁മുഖേന	-11.2202
▁ജുമാ	-11.2203
▁നാവികസേന	-11.2203
▁മഹത്ത്വ	-11.2203
സമാജ	-11.2203
▁അനുയായികൾ	-11.2204
▁മുനമ്പ	-11.2204
▁ടൈംസ്	-11.2204
▁പൊലീസ	-11.2205
▁ക്രമീകരിക്ക	-11.2212
▁വിനായക	-11.2215
▁ബ്രഹ്മാവിന	-11.2224
ക്ഷോഭ	-11.2238
▁പാലക്കാട	-11.2244
സഞ്ചയ	-11.2248
മേധാവി	-11.2258
രാമായണ	-11.2266
▁അർജ്ജുന	-11.2302
സമ്മത	-11.2304
റാൾഡ	-11.2304
▁കന്നട	-11.232
▁ഓട്ടിസ	-11.2329
പ്രത്യക്ഷപ്പെട്ട	-11.2354
▁വിസ്തൃത	-11.2355
▁ഉറപ്പിക്ക	-11.2363
▁വാർദ്ധക്യ	-11.2368
▁അഭ്യർത്ഥന	-11.2368
▁തിരൂരങ്ങാടി	-11.2368
▁ബൊളീവിയ	-11.2368
▁യോഹന്നാൻ	-11.2368
▁ശങ്കുണ്ണി	-11.2368
▁ഷാജഹാൻ	-11.2368
▁തൊണ്ണൂറ	-11.2368
▁കൊടുങ്കാറ്റ	-11.2368
▁ലണ്ടനിൽ	-11.2368
▁ഉല്പന്ന	-11.2368
▁പ്രയത്ന	-11.2368
▁അഴിമുഖ	-11.2368
▁സംഭരിക്ക	-11.2368
▁ഘടിപ്പിച്ച	-11.2368
▁പകർപ്പവകാശ	-11.2368
▁കാർബണ	-11.2368
▁എതിരെ	-11.2368
▁നിസ്കാര	-11.2368
▁ഭഗവാനെ	-11.2368
▁ആയില്യം	-11.2368
▁വർധിച്ച	-11.2368
▁ലായനി	-11.2369
▁ആവശ്യകത	-11.2369
▁പലയിടത്തു	-11.237
▁ഇല്ലാതായ	-11.237
▁വീക്ഷിക്ക	-11.2371
▁മുഴു	-11.2375
▁നിഷേധിച്ച	-11.2375
▁സ്വീഡന	-11.2384
▁സ്കോറ	-11.2386
▁മുഴക്ക	-11.2406
▁ഒരിടത്ത	-11.2419
ഭൗതിക	-11.2428
വളർച്ച	-11.2429
▁കൊലപ്പെടുത്ത	-11.2429
▁പൊട്ടിപ്പുറപ്പ	-11.2445
വെയറ	-11.2453
▁കോവിലകത്ത	-11.2467
▁ജന്തുക്കള	-11.2519
▁വിധത്തില	-11.2535
poem	-11.2537
▁ഇരിങ്ങാലക്കുട	-11.2537
▁ഞായറാഴ്ച	-11.2537
▁ഓറിയന്റൽ	-11.2537
▁കുർബ്ബാന	-11.2537
▁നെസ്തോറിയ	-11.2537
▁സൾഫർ	-11.2537
▁ചാമ്പ്യൻഷിപ്പ	-11.2537
▁മറഡോണ	-11.2537
▁ആചരിച്ചു	-11.2537
▁വടക്കുന്നാഥ	-11.2537
▁വീണ്ടെടുക്ക	-11.2537
▁നടുവിൽ	-11.2537
▁മുസ്ലീങ്ങൾ	-11.2538
▁അവശേഷിച്ച	-11.2538
▁എതിരേ	-11.2539
▁കോംഗോ	-11.2539
വൽക്കരിക്ക	-11.2539
▁ആലപിച്ച	-11.254
▁ബാറ്റിംഗ	-11.254
▁1903	-11.2541
തിനാവശ്യമായ	-11.2542
▁യുവാക്കള	-11.2548
മനുസരിച്ച	-11.2559
തിക്തം	-11.2559
നുസൃതമായി	-11.2563
▁മുന്നോടിയായി	-11.2573
right	-11.2585
ുണ്ടാവും	-11.259
സാമ്പത്തിക	-11.2601
▁പൊതുജനങ്ങൾക്ക	-11.2609
▁ഉണ്ടെന്നു	-11.2629
▁ശ്രദ്ധിച്ച	-11.2629
പടിഞ്ഞാറുഭാഗത്ത്	-11.2637
ിത്തുടങ്ങ	-11.265
െപ്പോലുള്ള	-11.265
▁പരുക്ക	-11.2673
ോപകരണങ്ങൾ	-11.2677
out	-11.2696
▁അഭിനേതാവ	-11.2709
▁ഇക്കാരണത്താൽ	-11.2709
▁ജൈവവൈവിധ്യ	-11.2709
▁താന്ത്രിക	-11.2709
▁ധൈര്യ	-11.2709
▁പ്രത്യുത്പാദന	-11.2709
▁ബാക്ടീരിയ	-11.2709
▁മണിപ്രവാള	-11.2709
▁മാർത്തോമ്മാ	-11.2709
▁വൈവിധ്യമാർന്ന	-11.2709
▁സുഗന്ധദ്രവ്യ	-11.2709
▁ചാപ്ലിൻ	-11.2709
▁ഡാർജിലിംഗ	-11.2709
▁യൂനിവേഴ്	-11.2709
▁പൂങ്കുല	-11.2709
▁റുസ്സോ	-11.271
▁സെമിനാരി	-11.271
കൗമുദി	-11.271
▁അഡോബി	-11.271
▁ബുധൻ	-11.271
▁ഇറച്ചി	-11.271
▁സൗരകളങ്ക	-11.271
▁മാർട്ടിൻ	-11.271
▁ക്ഷാര	-11.271
▁ഉപദ്രവ	-11.271
▁സുനാമി	-11.271
▁കുതിച്ചു	-11.271
▁അകമ്പടിയോടെ	-11.2711
▁രാമനാട്ട	-11.2711
ുന്നതിനിടയിൽ	-11.2711
ിട്ടുണ്ടു്	-11.2715
▁എഴുത്തച്ഛന	-11.2725
ുന്നതിനായ	-11.2727
പതിനേഴ	-11.2727
അധിവർഷങ്ങളി	-11.2737
ിപ്പിടിച്ച	-11.2745
രാജാക്കന്മാർ	-11.2776
തോമസ	-11.2776
സഞ്ചാര	-11.2777
സുന്ദര	-11.2778
ഫ്രാൻസ	-11.2794
ഭൂമിശാസ്ത്രപരമായ	-11.2801
iii	-11.281
സ്ഥാപിക്കപ്പെട്ട	-11.2818
▁ഉൽപ്പാദ	-11.2826
ബ്രിട്ടീഷുകാരുടെ	-11.2835
▁സ്വന്തമാക്ക	-11.2835
▁കൈവശപ്പെടുത്ത	-11.2841
▁വീതമ	-11.2881
ഫയർഫോക്സ	-11.2884
▁ഇസ്രയേൽ	-11.2885
▁കംബോഡിയ	-11.2885
▁പുലർച്ചെ	-11.2885
▁ഫെഡറേഷൻ	-11.2885
▁ബ്രൗസറ	-11.2885
▁മസ്തിഷ്ക	-11.2885
▁മൺസൂൺ	-11.2885
▁വേലുത്തമ്പി	-11.2885
മാഹാത്മ്യ	-11.2885
▁തൃപ്പൂണിത്തുറ	-11.2885
▁ഭൂഗർഭ	-11.2885
▁സ്പീഷീസ	-11.2885
▁ആകാശവാണി	-11.2885
▁അഭ്യാസ	-11.2885
▁ഉന്നയിച്ച	-11.2885
▁ഒരൊറ്റ	-11.2885
▁ദശരഥ	-11.2885
▁സദ്ദാം	-11.2885
▁ടോളമി	-11.2885
▁ഏറ്റവുമ	-11.2885
▁സീനിയർ	-11.2885
▁മേജർ	-11.2885
▁അതിരൂപത	-11.2885
▁കാഴ്ച്ച	-11.2885
▁ശ്രീനാരായണഗുരു	-11.2886
▁സാധ്യമല്ല	-11.2886
▁സംരക്ഷിച്ച	-11.2886
▁തടവിലാക്ക	-11.2886
▁ശങ്കർ	-11.2886
▁പരിപാലിക്ക	-11.2886
▁ഓംകാര	-11.2886
▁ഇന്ദു	-11.2887
വാസുദേവ	-11.2888
ുമൊത്ത്	-11.289
സൂചകമായ	-11.2894
▁ക്ഷണിക്ക	-11.2929
ഇമാം	-11.293
ാകുമെന്ന	-11.294
▁ആൽക്കല	-11.2942
ശ്രേണി	-11.2954
ദ്രാവിഡ	-11.2954
മന്ദിര	-11.2956
ോത്തര	-11.2957
▁ചടങ്ങുകള	-11.3005
ാഭ്യാസ	-11.3034
▁അലഹബാദ	-11.3063
▁ദമ്പതികൾ	-11.3063
▁നിശ്ശബ്ദ	-11.3063
▁മേൽപ്പറഞ്ഞ	-11.3063
▁ഉത്തേജന	-11.3063
▁നിർവചിക്ക	-11.3063
▁ഫൈനൽ	-11.3063
▁കൊയിലാണ്ടി	-11.3063
▁തെന്മല	-11.3063
▁ഗോതമ്പ്	-11.3064
▁ഭേദഗതി	-11.3064
▁ശൂദ്ര	-11.3064
▁നാഴികക്കല്ല	-11.3064
▁ഇതിനിടയിൽ	-11.3064
▁വ്യായാമ	-11.3064
▁പ്രകൃത്യാ	-11.3064
▁ഗോപിനാഥ	-11.3064
▁മോചിപ്പിക്ക	-11.3064
ാനാകാത്ത	-11.3065
▁ചിലവഴിച്ച	-11.3065
▁മോചിത	-11.3066
▁ശമിപ്പിക്ക	-11.3069
സസ്യജാല	-11.3069
▁ഹദീസ	-11.3071
തിനെപ്പറ്റി	-11.3077
▁ബിന്ദുവ	-11.3081
▁ഞെര	-11.3082
▁എരുമ	-11.309
▁ഗായകന	-11.3093
▁ജ്യോതി	-11.311
ശൃംഖല	-11.3136
കിലോമീറ്റർ	-11.3136
സാങ്കേതികവിദ്യ	-11.3137
▁കിരാത	-11.3145
▁ക്വാർക്ക	-11.3154
▁നെറ്റ്വർക്ക	-11.3159
▁എറ്റവു	-11.3167
ത്തോളമ	-11.3185
▁അകമ്പടി	-11.3244
▁നെന്മാറ	-11.3245
▁പെരിന്തൽമണ്ണ	-11.3245
▁യുധിഷ്ഠിര	-11.3245
▁വൈകീട്ട്	-11.3245
▁സാമുദായിക	-11.3245
▁സ്രഷ്ടാവ	-11.3245
▁ഉൾക്കടൽ	-11.3245
▁സുരേഷ്	-11.3245
▁മുഖ്യധാരാ	-11.3245
▁സാക്ഷാൽ	-11.3245
ology	-11.3245
▁ഇക്കൂട്ടത്തിൽ	-11.3245
▁ഇടത്തരം	-11.3246
▁മഹാത്മാ	-11.3246
▁എങ്കിൽ	-11.3246
▁വെബ്സൈറ്റ	-11.3246
▁അനുഷ്ഠിച്ച	-11.3246
▁സംഘടിത	-11.3247
വൃന്ദ	-11.3247
▁ദീക്ഷ	-11.3248
▁അഞ്ഞൂറ	-11.3248
▁എഞ്ചിൻ	-11.325
▁തനതു	-11.3253
ായിരത്തോള	-11.3254
നശീകരണ	-11.3256
ത്തിനകത്തു	-11.3265
▁ലഭ്യമാകുന്ന	-11.327
▁കുംഭമാസത്തി	-11.3273
സമ്പന്ന	-11.3288
ലഭിക്കുകയുണ്ടായി	-11.3316
ിരിക്കാമെന്ന	-11.3317
നിർദ്ദേശ	-11.3321
യൂറോപ്യൻ	-11.3322
വിനോദ	-11.3323
പോലുമ	-11.3323
ഭീമ	-11.3327
▁കടത്തിവിട	-11.3406
ചടങ്ങ	-11.3414
▁വിസ്തീർണ	-11.3429
▁മാർത്താണ്ഡ	-11.343
▁ഇക്കാലയളവിൽ	-11.343
▁കാഠിന്യ	-11.343
▁ഗൗരവ	-11.343
▁പാണ്ഡിത്യ	-11.343
▁പോർച്ചുഗീസുകാര	-11.343
▁മംഗലാപുരത്ത	-11.343
▁മമ്മൂട്ടി	-11.343
▁ലാറ്റിനമേരിക്ക	-11.343
▁ലോകമെമ്പാടുമ	-11.343
▁വൈസ്രോയി	-11.343
▁വർഷാവസാന	-11.343
▁സ്റ്റാൻഡേർഡ	-11.343
▁ഹൃദ്രോഗ	-11.343
▁ചെങ്ങന്നൂർ	-11.343
▁തീക്ഷ്ണ	-11.343
▁വടക്കാഞ്ചേരി	-11.343
▁ആസ്വദിക്ക	-11.343
▁ഉടമസ്ഥതയിലുള്ള	-11.343
▁ഏറെക്കുറെ	-11.343
▁സംരക്ഷിത	-11.343
▁ഖ്യാതി	-11.3431
▁പതുക്കെ	-11.3431
▁അനുസ്വാര	-11.3431
▁ദന്തക്ഷയ	-11.3431
▁പുനലൂർ	-11.3431
▁സാധാരണഗതിയിൽ	-11.3431
▁ഉയർച്ച	-11.3431
▁മിസൈൽ	-11.3431
▁തക്കാളി	-11.3431
▁പ്രേരിപ്പിക്ക	-11.3431
▁അലക്സാണ്ടർ	-11.3431
▁ഗുരുതരമായ	-11.3432
▁വെളിവാക്ക	-11.3432
▁ആകൃഷ്ടനായ	-11.3433
▁സ്നാന	-11.3434
▁കേന്ദ്രീകരിക്ക	-11.3435
▁ഹോട്ടല	-11.3441
▁മിർസ	-11.3462
നിർമിത	-11.3471
▁ധൂമകേതുക്കള	-11.3483
വരികയും	-11.3505
നേതാക്കൾ	-11.351
ഏപ്രിൽ	-11.351
ചൈന	-11.3516
സന്ധി	-11.3538
ിറക്കി	-11.3559
▁മുന്നൂറ	-11.3567
ുന്നതിനാണ്	-11.3573
▁സമ്മേള	-11.3596
ഉഷ്ണം	-11.3601
കാലത്തുതന്നെ	-11.3609
▁നെപോളിയന്റ	-11.3618
▁ഉപയോക്താവ	-11.3619
▁കീടനാശിനി	-11.3619
▁പ്രസിഡൻസി	-11.3619
▁ഇബ്രാഹിം	-11.3619
▁കൂടിച്ചേര	-11.3619
▁തഞ്ചാവൂർ	-11.3619
▁ഫുട്ബോള	-11.3619
▁വിക്ഷേപിക്ക	-11.3619
▁സ്വീഡിഷ്	-11.3619
▁തിരുനാവായ	-11.3619
▁പയ്യന്നൂർ	-11.3619
▁സമന്വയ	-11.3619
▁ഉപന്യാസ	-11.3619
▁നീതിന്യായ	-11.3619
▁വിശദീകരിച്ച	-11.3619
▁നട്ടെല്ല	-11.3619
▁സ്ഥാനമേറ്റു	-11.3619
▁രോഗലക്ഷണ	-11.3619
▁ഡെവിൾ	-11.3619
▁നിലമ്പൂർ	-11.3619
▁ജാനകി	-11.3619
ചിദംബര	-11.3619
▁പവിത്ര	-11.3619
▁ഓർബിറ്റ	-11.3619
▁വെടിക്കെട്ട	-11.362
▁നിലനിൽപ്പ	-11.362
▁തൃശൂര	-11.362
▁പരമേശ്വരൻ	-11.362
▁വൈൽഡ്	-11.362
യെക്കുറിച്ചും	-11.362
▁വഷളാ	-11.362
▁ശാരദ	-11.3621
▁ടിബറ്റ	-11.3621
▁വിശ്വസിയ്ക്ക	-11.3621
▁ഇൻഡീസ	-11.3621
ിനോടനുബന്ധിച്ച	-11.3622
▁സഞ്ജയ	-11.3623
▁നിഴല	-11.3628
▁ഏക്കറ	-11.363
▁ചതുരാകൃതിയ	-11.3633
▁കൊളുത്ത	-11.3635
ഭരിത	-11.3637
▁തുരത്ത	-11.3638
പായസം	-11.364
▁തുരുത്ത	-11.3653
▁അയാളെ	-11.3662
▁രാമചരിത	-11.3671
സഹജമായ	-11.3678
▁പ്രയോജനപ്പെടു	-11.3704
ബോർഡ	-11.372
▁തൊഴുത	-11.3729
▁ഇതെല്ലാ	-11.3741
▁വെങ്കട	-11.3777
▁വിദഗ്	-11.381
ാനുസൃത	-11.3811
▁സെന്റീ	-11.3811
▁അതിലധികമ	-11.3811
▁അപ്പസ്തോല	-11.3811
▁ആപ്ലിക്കേഷൻ	-11.3811
▁ഇംഗ്ളീഷ	-11.3811
▁ഏതായാലും	-11.3811
▁നിസ്സഹകരണ	-11.3811
▁നെടുംകുന്നം	-11.3811
▁പര്യവേക്ഷണ	-11.3811
▁പ്രോത്സാഹന	-11.3811
▁വന്യമൃഗ	-11.3811
▁ശ്ളോക	-11.3811
▁അധിവസിക്കുന്ന	-11.3811
▁കുമാരനാശാൻ	-11.3811
▁സോക്രട്ടീസ	-11.3811
▁ഉറപ്പുവരുത്ത	-11.3811
▁ഇതിനിടെ	-11.3812
▁ഒറ്റപ്പാലം	-11.3812
▁പുറന്തള്ള	-11.3812
▁ടോക്യോ	-11.3812
▁മദ്ദള	-11.3812
▁മലിനീകരണ	-11.3812
▁ക്ലോറിൻ	-11.3812
▁ആർദ്രത	-11.3812
▁വിദ്യാർഥി	-11.3812
▁മുരളി	-11.3812
▁പവിഴ	-11.3812
▁മിഴാവ	-11.3812
▁ഗ്ലോബ	-11.3812
▁ഘടിപ്പിക്ക	-11.3812
▁മാത്യു	-11.3813
ുന്നതിനിടെ	-11.3815
▁തീർപ്പ	-11.3817
emp	-11.3827
▁സഫറ	-11.3832
▁വർത്തിക്കുന്ന	-11.384
നിയോജകമണ്ഡല	-11.3854
ചുവട	-11.3858
▁മാരാര	-11.3871
▁വയനാട	-11.3891
▁വേർപെടുത്ത	-11.3895
പ്രശസ്ത	-11.3895
▁uni	-11.3896
▁മറാഠ	-11.3898
ഔ	-11.3899
ജൂലൈ	-11.3899
ഗവേഷണ	-11.3899
യിറക്ക	-11.3902
▁നിലപാടുകള	-11.3918
നീണ്ടുനിൽക്കുന്ന	-11.3945
ചിട്ടപ്പെടുത്തിയ	-11.3949
മിനുക്ക	-11.3978
▁കാർട്ടൂണ	-11.4007
▁ആഴ്ചപ്പതിപ്പ	-11.4008
▁കാല്പനിക	-11.4008
▁ക്ഷീരപഥ	-11.4008
▁കശ്മീർ	-11.4008
▁തൂലികാനാമ	-11.4008
▁പൂണൂൽ	-11.4008
▁ഫാരഡേ	-11.4008
▁മാത്രവുമല്ല	-11.4008
▁വിക്രമാദിത്യ	-11.4008
▁ഹിമാചൽ	-11.4008
സെപ്തംബർ	-11.4008
▁നിറുത്തലാക്ക	-11.4008
▁ടെലിസ്കോപ്പ	-11.4008
▁എഞ്ചിനീയർ	-11.4008
▁കൊളോണിയ	-11.4008
▁ശിഥില	-11.4008
▁കമ്പ്യൂട്ടിംഗ	-11.4008
▁കടലിടുക്ക	-11.4008
ോല്പത്തി	-11.4008
▁തുരങ്ക	-11.4008
▁കാബൂള	-11.4008
▁മ്യൂസിക്	-11.4008
▁ബ്ലാക്ക്	-11.4008
▁ഹൌസ്	-11.4008
▁സമ്പാദിച്ച	-11.4008
▁ലേലത്തിൽ	-11.4008
▁റോബിൻ	-11.4008
▁പ്രാർഥന	-11.4008
▁ഇലക്ട്രിക്	-11.4009
▁ഹബിള	-11.4011
▁സ്ഥാനത്തെത്തി	-11.4011
▁വഴിപാടുകള	-11.4017
▁ഇലക്ട്രോണുകള	-11.402
രുതെന്ന	-11.4022
▁ചെരിവ	-11.4025
▁തണല	-11.4041
▁മികവു	-11.4051
▁സോഷ്യലിസ	-11.4068
▁ജീവിതകാലത്ത	-11.4069
▁മാജിക്	-11.4072
▁കുരുമുളക	-11.4084
▁ഇവിടെയെത്ത	-11.4092
സരസ്വതി	-11.4098
വിദ്യാർത്ഥി	-11.4099
കൂടുതൽ	-11.41
▁കരസ്ഥമാക്ക	-11.4198
▁മുസ്ലീങ്ങള	-11.4206
▁അഭിസംബോധന	-11.4208
▁എത്യോപ്യ	-11.4208
▁ചങ്ങനാശേരി	-11.4208
▁തോമാശ്ലീഹ	-11.4208
▁ദാമോദര	-11.4208
▁പാരിസ്ഥിതിക	-11.4208
▁രാജരാജവർമ്മ	-11.4208
▁സരസ്വതീ	-11.4208
▁ദാർശനിക	-11.4208
▁ദൌത്യ	-11.4208
▁നിക്ഷിപ്ത	-11.4208
▁ബാറ്റ്സ്മാൻ	-11.4208
▁യുനെസ്കോ	-11.4208
▁സ്വാതന്ത്യ	-11.4208
▁പ്രാവർത്തികമാ	-11.4208
▁ലംഘിച്ച	-11.4208
▁ഹിന്ദുസ്ഥാൻ	-11.4208
▁പണ്ടുകാലത്ത്	-11.4208
▁റെയിൽപ്പാത	-11.4208
▁ശരീഅ	-11.4208
▁സോളാർ	-11.4208
▁ഈന്തപ്പഴ	-11.4208
സാക്ഷാത്ക	-11.4208
▁നാഗദൈവങ്ങൾ	-11.4208
▁കുമ്പള	-11.4208
▁കാർഗിൽ	-11.4208
▁ശ്യാമ	-11.4208
▁അഴിച്ചു	-11.4208
▁ബീഹാറ	-11.4209
▁പൈത്തണ	-11.4209
▁ഓർവെല	-11.4209
▁കാര്യക്ഷമമാ	-11.4209
▁അബ്ദുല്ല	-11.4209
▁അടിത്തട്ട	-11.4213
▁മേരീസ	-11.4215
▁പൊളിച്ച	-11.4219
വികാസ	-11.4221
▁കൗരവ	-11.4221
ൊഴുകി	-11.4235
▁വ്യാപിച്ചുകിട	-11.4295
▁വേഗത്തില	-11.4299
ഹിന്ദു	-11.4302
നേതൃത്വ	-11.4302
വിസ്തൃതി	-11.4303
അദ്ദേഹത്തിന്റെ	-11.4303
ഏറ്റവും	-11.4303
ുന്നതിനുവേണ്ടി	-11.4387
ങ്ങളിലേയ്ക്ക	-11.4388
അന്റാർട്ടിക്	-11.441
▁ആദിപരാശക്തി	-11.4412
▁കോയമ്പത്തൂർ	-11.4412
▁താത്കാലിക	-11.4412
▁ദൈനംദിന	-11.4412
▁പ്രഗല്ഭ	-11.4412
▁മരുമക്കത്തായ	-11.4412
▁മൊറാർജി	-11.4412
▁ലബോറട്ടറി	-11.4412
▁കുറ്റ്യാടി	-11.4412
▁പുകഴ്ത്ത	-11.4412
▁ഉൾനാടൻ	-11.4412
▁ഗറില്ലാ	-11.4412
▁സങ്കോച	-11.4412
▁മഹാരാജാസ്	-11.4412
▁മാലാഖ	-11.4412
▁നമ്മൾ	-11.4412
▁പ്രവചിക്ക	-11.4412
▁കൂദാശ	-11.4412
▁വേമ്പനാട്	-11.4412
▁ദ്രോണ	-11.4412
ച്ഛേദ	-11.4412
▁ഒബാമ	-11.4412
▁റോക്കറ്റ്	-11.4412
▁പെരുമാള	-11.4412
▁വെടിവെപ്പ	-11.4412
▁നിറവേറ്റ	-11.4412
▁ഒരുപക്ഷേ	-11.4412
▁ബ്രിട്ടണ	-11.4413
▁പാക്കേജ	-11.4414
▁ഉണർത്ത	-11.4414
▁തൂക്കിക്കൊല	-11.4415
▁ഓഡിറ്റ	-11.4416
▁ആലപിക്ക	-11.4426
▁ബുധന്റ	-11.4439
▁തുഗ്ലക	-11.4443
ായിരിക്കുമെന്ന	-11.4457
ശ്രവ	-11.4502
ഏകദേശം	-11.4511
അതായത്	-11.4511
▁ഭാഷകളിലേക്ക	-11.4532
▁ഫൈനല	-11.4593
▁അനുമാനിക്കപ്പെട	-11.46
▁കണ്ടെടുക്ക	-11.461
▁ഭാഗത്തേക്ക	-11.4618
ാവശിഷ്ടങ്ങൾ	-11.462
▁അഗ്നിപർവത	-11.462
▁എലിസബത്ത്	-11.462
▁ടെക്നോപാർക്ക	-11.462
▁ഡെപ്യൂട്ടി	-11.462
▁പനമ്പിള്ളി	-11.462
▁വഴിതെളിച്ച	-11.462
▁ത്രികോണമിതി	-11.462
▁ശ്രാദ്ധ	-11.462
▁എഴുത്തച്ഛൻ	-11.462
▁വകലാശാല	-11.462
▁അതിചാലക	-11.462
▁അഴീക്കോട	-11.462
▁ദ്വിതീയ	-11.462
▁പെരുമാൾ	-11.462
▁സംയോജന	-11.462
▁ധാർമ്മിക	-11.462
▁ദാരിയോ	-11.462
idae	-11.4621
▁വാസുകി	-11.4621
മിഥുന	-11.4622
▁വിഷ്ണുവിന	-11.4629
▁ബ്രോക്ക	-11.4629
▁പ്രാണികള	-11.4638
▁ശക്തിപ്പെടുത്ത	-11.464
▁തരംതിരിക്ക	-11.4641
▁മധ്യഭാഗത്ത	-11.4644
▁വർഷത്തേക്ക	-11.4651
ുന്നതിനോ	-11.4696
ശിലായുഗ	-11.4723
ലിയനാർഡോ	-11.4724
ഔദ്യോഗിക	-11.4724
തിരുവനന്തപുര	-11.4729
▁രാജകുമാരന	-11.4755
▁മരണമടഞ്ഞ	-11.4767
▁അച്ചടക്ക	-11.4802
ാന്തരീക്ഷ	-11.4809
▁ജീവിച്ചിരിക്ക	-11.4814
▁അരിസ്റ്റോട്ടില	-11.4833
▁അസാമാന്യ	-11.4833
▁ഇൻഫ്രാറെഡ്	-11.4833
▁കർദ്ദിനാൾ	-11.4833
▁നിയന്ത്രിത	-11.4833
▁പ്രാവീണ്യം	-11.4833
▁മരച്ചീനി	-11.4833
kerala	-11.4833
▁ന്യൂട്രോൺ	-11.4833
▁ഭഗവതീ	-11.4833
▁അമാവാസി	-11.4833
▁ചെമ്പകശ്ശേരി	-11.4833
ഫ്ലോറൻസ	-11.4833
സാമഗ്രികൾ	-11.4833
▁ഇപ്പോഴുള്ള	-11.4833
▁നാഴിക	-11.4833
▁രണ്ടെണ്ണം	-11.4833
▁ആയോധന	-11.4833
▁അലാസ്ക	-11.4833
▁ഈജിപ്റ്റ	-11.4833
▁ഫിറോസ്	-11.4833
▁അഭിമുഖീകരിക്ക	-11.4833
▁തൃപ്തി	-11.4833
▁എബ്രായ	-11.4833
▁അതിജീവിച്ച	-11.4833
▁കുഞ്ചൻ	-11.4833
▁കടലോര	-11.4833
▁ട്രേലിയ	-11.4833
▁രൂപംകൊള്ളുന്ന	-11.4834
▁നിരാകരിക്ക	-11.4834
▁മുട്ടയിടുന്ന	-11.4834
▁അതിജീവിക്ക	-11.4835
▁സാഹിബ	-11.4835
▁കർക്കടക	-11.484
▁വറുത്ത	-11.484
▁വീഴ്ത്തി	-11.4842
▁വൃത്തിയാക്ക	-11.4843
▁ഒതുക്ക	-11.4852
ുന്നതിനനുസരിച്ച	-11.4853
▁പ്രോട്ടോണുകള	-11.4855
▁നേടിയെടുക്ക	-11.4865
▁ഭാഗത്തായി	-11.4871
ർട്സ	-11.4939
ഷാജഹാന്റെ	-11.4977
▁ചോറ്റാനിക്കര	-11.5007
കർത്താവായ	-11.5045
left	-11.505
▁അത്യധിക	-11.505
▁അസിസ്റ്റന്റ്	-11.505
▁തീർഥാടന	-11.505
▁തൃപ്രയാർ	-11.505
▁മമ്പുറം	-11.505
▁മുഴപ്പിലങ്ങാട	-11.505
▁കശ്മീരി	-11.505
▁നിഷിദ്ധ	-11.505
▁പമ്പാനദി	-11.505
▁രാജവെമ്പാല	-11.505
▁സന്തുഷ്ട	-11.505
ഋ	-11.8305
